{
  "version": "1.0",
  "truncation": null,
  "padding": null,
  "added_tokens": [
    {
      "id": 0,
      "content": "</s>",
      "single_word": false,
      "lstrip": false,
      "rstrip": false,
      "normalized": false,
      "special": true
    }
  ],
  "normalizer": null,
  "pre_tokenizer": {
    "type": "Sequence",
    "pretokenizers": [
      {
        "type": "Split",
        "pattern": {
          "Regex": "(?i:'s|'t|'re|'ve|'m|'ll|'d)|[^\\r\\n\\p{L}\\p{N}]?\\p{L}+|\\p{N}{1,3}| ?[^\\s\\p{L}\\p{N}]+[\\r\\n]*|\\s*[\\r\\n]+|\\s+(?!\\S)|\\s+"
        },
        "behavior": "Isolated",
        "invert": false
      },
      {
        "type": "ByteLevel",
        "add_prefix_space": false,
        "trim_offsets": true,
        "use_regex": false
      }
    ]
  },
  "post_processor": null,
  "decoder": null,
  "model": {
    "type": "BPE",
    "dropout": null,
    "unk_token": null,
    "continuing_subword_prefix": null,
    "end_of_word_suffix": null,
    "fuse_unk": false,
    "byte_fallback": false,
    "vocab": {
      "</s>": 0,
      "!": 1,
      "\"": 2,
      "#": 3,
      "$": 4,
      "%": 5,
      "&": 6,
      "'": 7,
      "(": 8,
      ")": 9,
      "*": 10,
      "+": 11,
      ",": 12,
      "-": 13,
      ".": 14,
      "/": 15,
      "0": 16,
      "1": 17,
      "2": 18,
      "3": 19,
      "4": 20,
      "5": 21,
      "6": 22,
      "7": 23,
      "8": 24,
      "9": 25,
      ":": 26,
      ";": 27,
      "<": 28,
      "=": 29,
      ">": 30,
      "?": 31,
      "@": 32,
      "A": 33,
      "B": 34,
      "C": 35,
      "D": 36,
      "E": 37,
      "F": 38,
      "G": 39,
      "H": 40,
      "I": 41,
      "J": 42,
      "K": 43,
      "L": 44,
      "M": 45,
      "N": 46,
      "O": 47,
      "P": 48,
      "Q": 49,
      "R": 50,
      "S": 51,
      "T": 52,
      "U": 53,
      "V": 54,
      "W": 55,
      "X": 56,
      "Y": 57,
      "Z": 58,
      "[": 59,
      "\\": 60,
      "]": 61,
      "^": 62,
      "_": 63,
      "`": 64,
      "a": 65,
      "b": 66,
      "c": 67,
      "d": 68,
      "e": 69,
      "f": 70,
      "g": 71,
      "h": 72,
      "i": 73,
      "j": 74,
      "k": 75,
      "l": 76,
      "m": 77,
      "n": 78,
      "o": 79,
      "p": 80,
      "q": 81,
      "r": 82,
      "s": 83,
      "t": 84,
      "u": 85,
      "v": 86,
      "w": 87,
      "x": 88,
      "y": 89,
      "z": 90,
      "{": 91,
      "|": 92,
      "}": 93,
      "~": 94,
      "¡": 95,
      "¢": 96,
      "£": 97,
      "¤": 98,
      "¥": 99,
      "¦": 100,
      "§": 101,
      "¨": 102,
      "©": 103,
      "ª": 104,
      "«": 105,
      "¬": 106,
      "®": 107,
      "¯": 108,
      "°": 109,
      "±": 110,
      "²": 111,
      "³": 112,
      "´": 113,
      "µ": 114,
      "¶": 115,
      "·": 116,
      "¸": 117,
      "¹": 118,
      "º": 119,
      "»": 120,
      "¼": 121,
      "½": 122,
      "¾": 123,
      "¿": 124,
      "Â": 125,
      "Ã": 126,
      "Ä": 127,
      "Å": 128,
      "Æ": 129,
      "Ç": 130,
      "È": 131,
      "É": 132,
      "Ê": 133,
      "Ë": 134,
      "Ì": 135,
      "Í": 136,
      "Î": 137,
      "Ï": 138,
      "Ð": 139,
      "Ñ": 140,
      "Ò": 141,
      "Ó": 142,
      "Ô": 143,
      "Õ": 144,
      "Ö": 145,
      "×": 146,
      "Ø": 147,
      "Ù": 148,
      "Ú": 149,
      "Û": 150,
      "Ü": 151,
      "Ý": 152,
      "Þ": 153,
      "ß": 154,
      "à": 155,
      "á": 156,
      "â": 157,
      "ã": 158,
      "ä": 159,
      "å": 160,
      "æ": 161,
      "ç": 162,
      "è": 163,
      "é": 164,
      "ê": 165,
      "ë": 166,
      "ì": 167,
      "í": 168,
      "î": 169,
      "ï": 170,
      "ð": 171,
      "ĉ": 172,
      "Ċ": 173,
      "Ġ": 174,
      "Ģ": 175,
      "ģ": 176,
      "Ĥ": 177,
      "ĥ": 178,
      "Ħ": 179,
      "ħ": 180,
      "Ĩ": 181,
      "ĩ": 182,
      "Ī": 183,
      "ī": 184,
      "Ĭ": 185,
      "ĭ": 186,
      "Į": 187,
      "į": 188,
      "İ": 189,
      "ı": 190,
      "Ĳ": 191,
      "ĳ": 192,
      "Ĵ": 193,
      "ĵ": 194,
      "Ķ": 195,
      "ķ": 196,
      "ĸ": 197,
      "Ĺ": 198,
      "ĺ": 199,
      "Ļ": 200,
      "ļ": 201,
      "Ľ": 202,
      "ľ": 203,
      "Ŀ": 204,
      "ŀ": 205,
      "Ł": 206,
      "ł": 207,
      "Ń": 208,
      "Ġà": 209,
      "ĠÐ": 210,
      "Ð¾": 211,
      "à±": 212,
      "Ġà¤": 213,
      "Ð°": 214,
      "à¥": 215,
      "Ðµ": 216,
      "Ð¸": 217,
      "ÑĤ": 218,
      "Ð½": 219,
      "Ġà°": 220,
      "ÑĢ": 221,
      "Ð¾Ð": 222,
      "Ñģ": 223,
      "įà": 224,
      "¾à": 225,
      "Ð»": 226,
      "įà°": 227,
      "à±įà°": 228,
      "¿à": 229,
      "Ñĥ": 230,
      "Ñĸ": 231,
      "Ðº": 232,
      "à±ģ": 233,
      "Ð²": 234,
      "à¥ĩ": 235,
      "Ñı": 236,
      "¾à°": 237,
      "°¾à°": 238,
      "à°¾à°": 239,
      "¤°": 240,
      "Ð¼": 241,
      "Ð´": 242,
      "¿à°": 243,
      "°¿à°": 244,
      "à°¿à°": 245,
      "¤¾à": 246,
      "à¤¾à": 247,
      "ĠÐ¿": 248,
      "ÑĮ": 249,
      "Ġà¤ķ": 250,
      "Ġa": 251,
      "ĠÐ²": 252,
      "à¤¾à¤": 253,
      "à¥įà": 254,
      "Ġt": 255,
      "ÑģÑĤ": 256,
      "°Ĥ": 257,
      "à°Ĥ": 258,
      "en": 259,
      "à¥Ģ": 260,
      "es": 261,
      "er": 262,
      "Ñĩ": 263,
      "à¤°": 264,
      "Ġd": 265,
      "¤Ĥ": 266,
      "¤¿à": 267,
      "à¤¿à": 268,
      "ĠÐ½": 269,
      "Ñĭ": 270,
      "à¤Ĥ": 271,
      "in": 272,
      "à¥įà¤": 273,
      "à±ģà": 274,
      "à±ģà°": 275,
      "¤¾": 276,
      "à¤¾": 277,
      "ÐµÐ½": 278,
      "ĠÑģ": 279,
      "°¿": 280,
      "à°¿": 281,
      "on": 282,
      "Ð¾Ð²": 283,
      "à¤¿à¤": 284,
      "ÑĢÐ°": 285,
      "Ñħ": 286,
      "Ġs": 287,
      "Ġc": 288,
      "Ġp": 289,
      "à¥ĭ": 290,
      "Ð¿": 291,
      "Ð·": 292,
      "°¨": 293,
      "à°¨": 294,
      "Ġl": 295,
      "Ð¹": 296,
      "ar": 297,
      "or": 298,
      "°°": 299,
      "à°°": 300,
      "à±ĩ": 301,
      "Ġde": 302,
      ".Ċ": 303,
      "à±ĭ": 304,
      "os": 305,
      "¤¨": 306,
      "à¤¨": 307,
      "ĠÐ´": 308,
      "Ñİ": 309,
      "Ð½Ð¸": 310,
      "ĠÐ¾": 311,
      "Ð±": 312,
      "an": 313,
      "ÑĨ": 314,
      "°²": 315,
      "à°²": 316,
      "ĠÐ·": 317,
      "as": 318,
      "ÐµÑĢ": 319,
      "¤ķ": 320,
      "à¤ķ": 321,
      "Ġth": 322,
      "ĠÐº": 323,
      "Ġà¤¹": 324,
      "Ġà¤¸": 325,
      "Ð³": 326,
      "ĠÑĤ": 327,
      "°¦": 328,
      "à°¦": 329,
      "Ð¾Ð¼": 330,
      "ÑĪ": 331,
      "Ð¾ÑĢ": 332,
      "re": 333,
      "Ġm": 334,
      "ĠÐ¼": 335,
      "ĠÐ¿ÑĢ": 336,
      "ĠÐ½Ð°": 337,
      "à±į": 338,
      "Ð¾Ð³": 339,
      "al": 340,
      "ĠÐ¸": 341,
      "°ķ": 342,
      "à°ķ": 343,
      "Ð¾Ð»": 344,
      "âĢ": 345,
      "¤¤": 346,
      "à¤¤": 347,
      "à±Ģ": 348,
      "Ð½Ð¾": 349,
      "ÑĤÐ¸": 350,
      "Ġà¤®": 351,
      "Ð¾Ð´": 352,
      "Ð¶": 353,
      "Ð°Ð»": 354,
      "at": 355,
      "is": 356,
      "à¥Ī": 357,
      "Ġe": 358,
      "Ġà°ª": 359,
      "ÑĤÑĮ": 360,
      "¤¸": 361,
      "à¤¸": 362,
      "ci": 363,
      "Ð°Ð½": 364,
      "à°Ĥà": 365,
      "à°Ĥà°": 366,
      "Ġà¤ª": 367,
      "Ġthe": 368,
      "it": 369,
      "¤¹": 370,
      "à¤¹": 371,
      "Ġo": 372,
      "ad": 373,
      "ÐµÑĤ": 374,
      "à°¾à°°": 375,
      "Ġh": 376,
      "ent": 377,
      "Ġf": 378,
      "ĠÐ±": 379,
      "°¾": 380,
      "à°¾": 381,
      "à±Ĩ": 382,
      "à±įà°°": 383,
      "Ġà°ķ": 384,
      "ue": 385,
      "à¥ģ": 386,
      "un": 387,
      "ĠÑ": 388,
      "Ġw": 389,
      "Ġà°µ": 390,
      "Ð»Ð¸": 391,
      "¤²": 392,
      "à¤²": 393,
      "ic": 394,
      "°¸": 395,
      "à°¸": 396,
      "Ð½Ð°": 397,
      "Ġb": 398,
      "ÐºÐ¸": 399,
      "°¡": 400,
      "à°¡": 401,
      "Ġà°®": 402,
      "ĠÑĥ": 403,
      "ĠÑĢ": 404,
      "ÑģÑı": 405,
      "Ġà°ħ": 406,
      "ro": 407,
      "ed": 408,
      "Ð¾Ð³Ð¾": 409,
      "Ġà°¸": 410,
      "°Ł": 411,
      "à°Ł": 412,
      "Ġy": 413,
      "à¥ĩà¤Ĥ": 414,
      "°¤": 415,
      "à°¤": 416,
      "ÐºÐ°": 417,
      "¤®": 418,
      "à¤®": 419,
      "Ð»Ð°": 420,
      "Ġin": 421,
      "ĠÐ·Ð°": 422,
      "Ð²Ð°": 423,
      "Ð½Ñĭ": 424,
      "°®": 425,
      "à°®": 426,
      "ĠÐ½Ðµ": 427,
      "à¤¾à¤°": 428,
      "Ġà¤¬": 429,
      "Ð¾ÑĤ": 430,
      "à±įà°¨": 431,
      "Ġan": 432,
      "Ġla": 433,
      "Ġn": 434,
      "Ð¾Ð±": 435,
      "om": 436,
      "Ð»ÑĮ": 437,
      "ÐµÐ¼": 438,
      "ing": 439,
      "Ð½Ñı": 440,
      "que": 441,
      "à¥įà¤°": 442,
      "Ġà¤ľ": 443,
      "ÑĹ": 444,
      "¤ª": 445,
      "à¤ª": 446,
      "°µ": 447,
      "à°µ": 448,
      "Ġà°ļ": 449,
      "à°¿à°Ĥ": 450,
      "Ð¸ÑĤ": 451,
      "°ļ": 452,
      "à°ļ": 453,
      "°ª": 454,
      "à°ª": 455,
      "id": 456,
      "Ġto": 457,
      "ÐµÐ´": 458,
      "Ð¾Ð½": 459,
      "le": 460,
      "Ã³": 461,
      "à°¾à°²": 462,
      "¤Ĺ": 463,
      "à¤Ĺ": 464,
      "Ġà¤¨": 465,
      "Ġen": 466,
      "ÐµÐ½Ð¸": 467,
      "Ñī": 468,
      "Ð»Ñı": 469,
      "à±įà°¯": 470,
      "Ð¾Ñģ": 471,
      "ĠÑĩ": 472,
      "ÑĸÐ´": 473,
      "à±įà°²": 474,
      "à¥¤": 475,
      "ĠÐ³": 476,
      "Ġque": 477,
      "à±Ĥ": 478,
      "Ð¾Ð¹": 479,
      "°¯": 480,
      "à°¯": 481,
      "Ð¼Ð¸": 482,
      "ĠÐ°": 483,
      "à±įà°¤": 484,
      "Ġà°¨": 485,
      "ĠâĢ": 486,
      "Ġà¤²": 487,
      "est": 488,
      "Ġà¤¦": 489,
      "am": 490,
      "Ġof": 491,
      "Ġà¤ħ": 492,
      "Ð¾Ðº": 493,
      "ÑĢÐ¸": 494,
      "us": 495,
      "ur": 496,
      "il": 497,
      "Ġcon": 498,
      "Ð½Ñĸ": 499,
      "Ġà¤µ": 500,
      "Ġand": 501,
      "Ġà°¤": 502,
      "Ġel": 503,
      "Ð¾Ð¶": 504,
      "ĠÑĸ": 505,
      "à°¿à°¨": 506,
      "à°¾à°¨": 507,
      "¤¦": 508,
      "à¤¦": 509,
      "ÑĶ": 510,
      "Ġà¤°": 511,
      "à¥Ĥ": 512,
      "ÑĸÐ²": 513,
      "à°¿à°ķ": 514,
      "Ð°Ðº": 515,
      "Ġun": 516,
      "Ġre": 517,
      "à¥ĭà¤Ĥ": 518,
      "Ð°ÑĤ": 519,
      "ct": 520,
      "ÐµÑģ": 521,
      "ion": 522,
      "à¤¾à¤¨": 523,
      "à±įà°Ł": 524,
      "¤µ": 525,
      "à¤µ": 526,
      "Ġ(": 527,
      "Ð¾Ð·": 528,
      "ĠÐ»": 529,
      "el": 530,
      "ĠÑģÑĤ": 531,
      "Ġg": 532,
      "à±ģà°²": 533,
      "à±Ī": 534,
      "ĠS": 535,
      "Ġà¤Ĩ": 536,
      "ÑĢÑĥ": 537,
      "ÃŃ": 538,
      "°Ĺ": 539,
      "à°Ĺ": 540,
      "Ð¾ÑģÑĤ": 541,
      "im": 542,
      "à¥įà¤¯": 543,
      "Ð²Ð¸": 544,
      "ĠC": 545,
      "ÑĨÑĸ": 546,
      "ol": 547,
      "Ã¡": 548,
      "ut": 549,
      "Ġse": 550,
      "ĠÐ¿ÑĢÐ¸": 551,
      "ÑĦ": 552,
      "Ġv": 553,
      "ĠÑĢÐ°": 554,
      "Ã³n": 555,
      "Ġà¤ķà¤°": 556,
      "¤¯": 557,
      "à¤¯": 558,
      "ÑĤÐ¾": 559,
      "ÐµÐ¹": 560,
      "ĠA": 561,
      "Ġà°°": 562,
      "à¥ĩà": 563,
      "à¥ĩà¤": 564,
      "Ð°ÑĢ": 565,
      "ĠÐ²Ð¸": 566,
      "¤¿": 567,
      "à¤¿": 568,
      "ÑĨÐ¸": 569,
      "à¤¿à¤¯": 570,
      "ÐµÐº": 571,
      "iv": 572,
      "à±ģ.": 573,
      "Ġà¤¤": 574,
      "à±ģà°Ĥ": 575,
      "ch": 576,
      "ra": 577,
      "ĠÐ¾Ð±": 578,
      "à±ģà°¨": 579,
      "ĠÑı": 580,
      "ul": 581,
      "ÑģÑĮ": 582,
      "et": 583,
      "¤¬": 584,
      "à¤¬": 585,
      "à±Ĭ": 586,
      "ĠI": 587,
      "ÐºÑĥ": 588,
      "à±ģà°ķ": 589,
      "Ġà¤ī": 590,
      "à°¿.": 591,
      "ĠT": 592,
      "¤¡": 593,
      "à¤¡": 594,
      "ig": 595,
      "¤ľ": 596,
      "à¤ľ": 597,
      "ÐµÐ»": 598,
      "Ġà°Ĩ": 599,
      "ir": 600,
      "¤¼": 601,
      "à¤¼": 602,
      "Ð°Ð»ÑĮ": 603,
      "ÑĩÐ¸": 604,
      "ot": 605,
      "ĠM": 606,
      "Ġà¤Ĺ": 607,
      "ĠÐ¿Ð¾": 608,
      "20": 609,
      "ĠP": 610,
      "ĠÐĴ": 611,
      "Ġà¤ĩ": 612,
      "Ġal": 613,
      "Ð¾Ð¿": 614,
      "em": 615,
      "Ġà¤Ń": 616,
      "Ð´Ð°": 617,
      "Ġà¤Ķ": 618,
      "ĠÐŁ": 619,
      "Ġà¤Ķà¤°": 620,
      "Ġcom": 621,
      "aci": 622,
      "Ð½Ð¾Ð³Ð¾": 623,
      "à±įà°ª": 624,
      "Ð½Ñĥ": 625,
      "ay": 626,
      "ab": 627,
      "Ð²Ð¾": 628,
      "ĠÐµ": 629,
      "ĠÐ¾ÑĤ": 630,
      "Ġpar": 631,
      "ÐµÐ·": 632,
      "à¥Īà¤Ĥ": 633,
      "Ð¾Ð²Ð°": 634,
      "ÐµÑģÑĤ": 635,
      "Ġà°ī": 636,
      "Ġlos": 637,
      "res": 638,
      "¤Ł": 639,
      "à¤Ł": 640,
      "Ġes": 641,
      "Ð°Ð¼": 642,
      "ÐºÐ¾": 643,
      "Ġà°ĩ": 644,
      "ĠÑį": 645,
      "ÑĥÐ´": 646,
      "ĠÐ¿ÑĢÐ¾": 647,
      "ĠE": 648,
      "ÐµÐ»ÑĮ": 649,
      "à¤¿à¤ķ": 650,
      "ers": 651,
      "âĢĻ": 652,
      "Ġà°¦": 653,
      "à¤¾à¤²": 654,
      "Ð°Ð²": 655,
      "Ġpro": 656,
      "à¥ģà": 657,
      "à¥ģà¤": 658,
      "à±įà°µ": 659,
      "Ġà¤¯": 660,
      "à±įà°ķ": 661,
      "Ð¾Ð»ÑĮ": 662,
      "do": 663,
      "ÑĩÐ°": 664,
      "Ġà¤ªà¤°": 665,
      "Ġà°¬": 666,
      "ant": 667,
      "ĠÑĦ": 668,
      "ĠÐ¿ÐµÑĢ": 669,
      "Ð¸Ð¼": 670,
      "ÐµÐ³": 671,
      "Ġest": 672,
      "Ġfor": 673,
      "ĠÐ¶": 674,
      "ce": 675,
      "ist": 676,
      "à¥įà¤¤": 677,
      "Ġsu": 678,
      "¤ļ": 679,
      "ĠÐ¡": 680,
      "à¤ļ": 681,
      "ÑĤÐ°": 682,
      "Ġà°Ĺ": 683,
      "Ð¸Ð½": 684,
      "ÑĤÑĮÑģÑı": 685,
      "Ð¾Ð¼Ñĥ": 686,
      "à°Ĥà°¦": 687,
      "ĠÂ": 688,
      "Ġà°²": 689,
      "Ã©": 690,
      "Ð½Ð¾ÑģÑĤ": 691,
      "ĠÑĤÐ°": 692,
      "st": 693,
      "Ġà¤ı": 694,
      "à°¾à°¯": 695,
      "ĠÑī": 696,
      "à±ĩà": 697,
      "à±ĩà°": 698,
      "Ġà¤ļ": 699,
      "..": 700,
      "à°¿à°¤": 701,
      "ĠB": 702,
      "à±ĩà°¸": 703,
      "ÐµÐ½Ð½Ñı": 704,
      "Ġà°İ": 705,
      "Â»": 706,
      "Ġon": 707,
      "ĠÐļ": 708,
      "Ð°Ð»Ð¸": 709,
      "ĠÐ²ÑĸÐ´": 710,
      "ĠD": 711,
      "ĠL": 712,
      "à°Ĥà°Ĺ": 713,
      "Ð¼Ð°": 714,
      "Ġdel": 715,
      "ĠÑģÐ¿": 716,
      "ÑĪÐ¸": 717,
      "ĠâĢĵ": 718,
      "Ġis": 719,
      "ter": 720,
      "ÐµÐ½Ð¸Ñı": 721,
      "à±įà°¸": 722,
      "Ġbe": 723,
      "he": 724,
      "à¥įà¤Ł": 725,
      "qu": 726,
      "à¤¾à¤¤": 727,
      "Ð°Ð½Ð½Ñı": 728,
      "Ġà¤¶": 729,
      "ĠÐ²Ñĭ": 730,
      "ly": 731,
      "à°¿à°¸": 732,
      "ado": 733,
      "Ġà¤ĩà¤¸": 734,
      "à±ģà°¤": 735,
      "à¤¿à¤²": 736,
      "ĠÂ«": 737,
      "ĠÐĿ": 738,
      "à±įà°ļ": 739,
      "à¤¿à¤ı": 740,
      "ow": 741,
      "ÑĢÐµ": 742,
      "ĠÑħ": 743,
      "Ġà°ľ": 744,
      "ĠÐ´Ð»Ñı": 745,
      "Ġlas": 746,
      "ĠÑĨ": 747,
      "ÐŁ": 748,
      "à°¿à°²": 749,
      "Ð´Ð¸": 750,
      "à¥Īà¥¤": 751,
      "Ð°Ñģ": 752,
      "à°¿à°¯": 753,
      "à¤¿à¤¤": 754,
      "Ð½ÑĭÑħ": 755,
      "ĠÐ´Ð¾": 756,
      "Ġha": 757,
      "à°Ĥà°Ł": 758,
      "ÑĤÑĥ": 759,
      "ĠR": 760,
      "Ġ-": 761,
      "Ġpor": 762,
      "od": 763,
      "ÑİÑĤ": 764,
      "ÐµÐ²": 765,
      "à°Ĥà°¤": 766,
      "Ð¸Ñģ": 767,
      "à¤¿à¤¸": 768,
      "ou": 769,
      "ĠÐľ": 770,
      "°ľ": 771,
      "à°ľ": 772,
      "Ð½Ð¾Ð¹": 773,
      "à¤¾à¤®": 774,
      "Ð·Ð°": 775,
      "ÑĸÐ¹": 776,
      "ĠÐ¿Ð¾Ð´": 777,
      "ÑĸÐ½": 778,
      "ente": 779,
      "Ġthat": 780,
      "Ġas": 781,
      "ĠF": 782,
      "aciÃ³n": 783,
      "ve": 784,
      "Ġwh": 785,
      "à±Ĩà°²": 786,
      "Ð½Ð¸Ñħ": 787,
      "°¬": 788,
      "à°¬": 789,
      "Ð¾Ð²Ð¸": 790,
      "if": 791,
      "Ġpara": 792,
      "ÑģÐ¸": 793,
      "ĠH": 794,
      "Ð½ÑĭÐµ": 795,
      "Ġà¤¥": 796,
      "ation": 797,
      "ĠÐ¼Ð¾Ð¶": 798,
      "à¤¾à¤Ĥ": 799,
      "ÐĴ": 800,
      "ĠÐ²Ñģ": 801,
      "ill": 802,
      "Ġà°ħà°¨": 803,
      "io": 804,
      "à¥įà¤µ": 805,
      "à±įà°®": 806,
      "¤§": 807,
      "à¤§": 808,
      "ÑĢÐ¾": 809,
      "à¤¾à¤¯": 810,
      "Ġex": 811,
      "ĠÑĤÐ°Ðº": 812,
      "Ð¡": 813,
      "ici": 814,
      "ith": 815,
      "Ð¶Ðµ": 816,
      "ÑĸÐ»ÑĮ": 817,
      "Ġst": 818,
      "°¹": 819,
      "à°¹": 820,
      "ÑģÐ¿": 821,
      "ĠN": 822,
      "ÑħÐ¾Ð´": 823,
      "ag": 824,
      "Ġno": 825,
      "ĠÐĶ": 826,
      "um": 827,
      "ien": 828,
      "ÐµÐ½ÑĤ": 829,
      "ĠG": 830,
      "à°¿à°ª": 831,
      "ÑģÐº": 832,
      "Ġlo": 833,
      "ĠÐŀ": 834,
      "Ġuna": 835,
      "Ð¸ÑģÑĤ": 836,
      "Ġà¤°à¤¹": 837,
      "à°¾à°Ĥ": 838,
      "ÑĥÑĤ": 839,
      "Ð³Ð°": 840,
      "Ġà°Ī": 841,
      "ĠÐ¸Ð·": 842,
      "ud": 843,
      "Ð»Ð¾": 844,
      "Ð»Ñĥ": 845,
      "ia": 846,
      "Ġr": 847,
      "ĠÐ¿Ð¾Ð»": 848,
      "Ġà¤ıà¤ķ": 849,
      "Ð½Ðµ": 850,
      "ĠÐĲ": 851,
      "Ã±": 852,
      "Ð½Ð¸Ð¹": 853,
      "ĠÐ¢": 854,
      "Ġà¤ĸ": 855,
      "ĠÑĩÑĤÐ¾": 856,
      "à°¾à°¡": 857,
      "ÑĢÐ°Ð²": 858,
      "ÐµÐ½Ð¸Ðµ": 859,
      "ort": 860,
      "âĢĿ": 861,
      "Ġ\"": 862,
      "00": 863,
      "iz": 864,
      "à¤¿à¤¨": 865,
      "¤Ī": 866,
      "à¤Ī": 867,
      "à¥Ģà¤Ĥ": 868,
      "à°Ĥà°²": 869,
      "à°¿à°°": 870,
      "ĠÑīÐ¾": 871,
      "ÑģÑĤÐ²": 872,
      "Ġà¤«": 873,
      "ver": 874,
      "ĠÐ£": 875,
      "ĠÑıÐº": 876,
      "Ðŀ": 877,
      "ĠÑĢÐ°Ð·": 878,
      "ÃŃa": 879,
      "ÑģÑĤÑĮ": 880,
      "Ġit": 881,
      "à±ģà°Ĺ": 882,
      "ib": 883,
      "à°¾à°¤": 884,
      "pe": 885,
      "à°¿à°Ĺ": 886,
      "Ð¾Ñĩ": 887,
      "à¤¾à¤¦": 888,
      "ÐĿ": 889,
      "Ġwith": 890,
      "Ð»Ðµ": 891,
      "ĠW": 892,
      "ÐºÐ¾Ð²": 893,
      "lo": 894,
      "ere": 895,
      "ÐµÑĤÑģÑı": 896,
      "ĠÐł": 897,
      "ÑīÐ¸": 898,
      "Ð½ÑĭÐ¹": 899,
      "ta": 900,
      "¤Ń": 901,
      "à¤Ń": 902,
      "ÑĤÐµ": 903,
      "201": 904,
      "à°¾à°Ł": 905,
      "de": 906,
      "¤¶": 907,
      "à¤¶": 908,
      "à±ģà°¡": 909,
      "ÑĪÐµ": 910,
      "à¥įà¤®": 911,
      "ĠÐ±Ñĭ": 912,
      "à±Ĩà°Ĥ": 913,
      "à¤ªà¤¨": 914,
      "ac": 915,
      "Ð²Ñĸ": 916,
      "ĠÐ¾Ñģ": 917,
      "and": 918,
      "à¥ĭà¤Ĺ": 919,
      "te": 920,
      "ÑĥÐ¿": 921,
      "à¥įà¤·": 922,
      "ÐµÐ½ÑĮ": 923,
      "Ð´Ðµ": 924,
      "Ã¡s": 925,
      "th": 926,
      "Ðļ": 927,
      "°£": 928,
      "à°£": 929,
      "à±Īà°¨": 930,
      "à°Ĥà°¡": 931,
      "ÑĥÑİ": 932,
      "à±įà°·": 933,
      "Ġor": 934,
      "à°¾à°ķ": 935,
      "à¤¾à¤¸": 936,
      "idad": 937,
      "ÐºÑĢÐ°": 938,
      "ĠâĢĶ": 939,
      "ÐµÑĩ": 940,
      "ÑĥÐ²": 941,
      "ĠÑĪ": 942,
      "Ġat": 943,
      "à¥ĩà¤¶": 944,
      "ÑĢÐ¾Ð²": 945,
      "Ð¸Ñĩ": 946,
      "à°¾à°®": 947,
      "Ġso": 948,
      "ĠÑĢÐ¾Ð·": 949,
      "ÑĢÑĸ": 950,
      "ÐĲ": 951,
      "à¤¿à¤°": 952,
      "Ġne": 953,
      "¤ı": 954,
      "à¤ı": 955,
      "Ġdes": 956,
      "19": 957,
      "à¥Į": 958,
      "Ð»Ñİ": 959,
      "Ð°Ð¹": 960,
      "à°¿à°µ": 961,
      "to": 962,
      "ÑĤÐ¸Ð²": 963,
      "Ġj": 964,
      "Ġà¤¨à¤¹": 965,
      "up": 966,
      "°§": 967,
      "à°§": 968,
      "ĠâĢľ": 969,
      "Ġà¤Ĩà¤ª": 970,
      "ĠÐºÐ¾Ð¼": 971,
      "ĠÐ±ÑĥÐ´": 972,
      "à±ĩà°¶": 973,
      "ÑĥÐ¼": 974,
      "Ġà°Ń": 975,
      "our": 976,
      "à±ģà°°": 977,
      "ÐµÐ¶": 978,
      "¤£": 979,
      "à¤£": 980,
      "Ġper": 981,
      "à¤¾à¤¹": 982,
      "à°¾à°Ĺ": 983,
      "ÐºÐ¸Ñħ": 984,
      "ĠÐĳ": 985,
      "à¤¾à¤ľ": 986,
      "ient": 987,
      "ĠÐºÐ¾ÑĤ": 988,
      "°Ń": 989,
      "à°Ń": 990,
      "ÐºÐ¸Ð¹": 991,
      "ĠJ": 992,
      "à±ģà°µ": 993,
      "end": 994,
      "tr": 995,
      "ces": 996,
      "ĠÐ¿ÑĢÐµÐ´": 997,
      "ĠÐºÐ¾Ð½": 998,
      "ada": 999,
      "ĠÐ¿ÑĸÐ´": 1000,
      "Ġà¤īà¤¨": 1001,
      "à°¿à°®": 1002,
      "ke": 1003,
      "Ġtr": 1004,
      "Ġà°®à°°": 1005,
      "à¥ī": 1006,
      "ate": 1007,
      "ĠO": 1008,
      "Ġà¤ķà¤°à¤¨": 1009,
      "à±ĭà°¨": 1010,
      "à±ĩà°¦": 1011,
      "Ð°Ð´": 1012,
      "Ġà°¶": 1013,
      "Ġle": 1014,
      "ÐµÑĢÐ°": 1015,
      "ĠÐ¿Ð¾Ð²": 1016,
      "ap": 1017,
      "à±Ģà°°": 1018,
      "ÐµÐ¿": 1019,
      "Ġà°¹": 1020,
      "Ġyou": 1021,
      "à±Ĥà°¡": 1022,
      "Ð°Ð»Ð°": 1023,
      "Ġcu": 1024,
      "à°¾à°¦": 1025,
      "ĠÐĹ": 1026,
      "Ð½Ð¸Ðº": 1027,
      "ĠÐ¾Ð´": 1028,
      "à±ģ,": 1029,
      "Ġme": 1030,
      "la": 1031,
      "Ð½Ð¸Ñı": 1032,
      "à°¾à°µ": 1033,
      "oc": 1034,
      "ĠÐ¿ÑĢÐ°": 1035,
      "ier": 1036,
      "Ġpr": 1037,
      "°³": 1038,
      "à°³": 1039,
      "à¤¾à¥¤": 1040,
      "Ġà¤ħà¤ªà¤¨": 1041,
      "op": 1042,
      "à¥ģà¤°": 1043,
      "ÐµÐ±": 1044,
      "ĠÐ¼Ñĸ": 1045,
      "Ð¸Ð·": 1046,
      "à¥ĩà¤ķ": 1047,
      "ĠÑģÐ²Ð¾": 1048,
      "ĠÐ¾Ð¿": 1049,
      "Ð½Ð¾ÑĹ": 1050,
      "à¥įà¤¸": 1051,
      "ĠÑĸÐ½": 1052,
      "ones": 1053,
      "à¥Ĥà¤°": 1054,
      "à±įà°¥": 1055,
      "ĠÐºÐ°": 1056,
      "Ġà¤¸à¤®": 1057,
      "Ġcomp": 1058,
      "ÑĭÐµ": 1059,
      "ÑıÑĤ": 1060,
      "Ãº": 1061,
      "ip": 1062,
      "Ġhe": 1063,
      "Ð²Ð°ÑĤÐ¸": 1064,
      "Ġare": 1065,
      "ÐĶ": 1066,
      "ĠÐ¿Ð¾Ñģ": 1067,
      "igh": 1068,
      "ÐµÐ»Ð¸": 1069,
      "ÑģÑĤÐ¸": 1070,
      "ÑĢÐµÐ´": 1071,
      "Ð»ÐµÐ½": 1072,
      "à¤¾à¤µ": 1073,
      "se": 1074,
      ":Ċ": 1075,
      "ÑĨÐ¸Ð¸": 1076,
      "Ð¢": 1077,
      "ie": 1078,
      "Ð³Ð¾": 1079,
      "Ð»Ñĸ": 1080,
      "ĠÐ»Ñİ": 1081,
      "Ġà¤¯à¤¹": 1082,
      "ĠU": 1083,
      "rom": 1084,
      "Ġwas": 1085,
      "enci": 1086,
      "Ð´Ñĥ": 1087,
      "Ð²ÐµÑĢ": 1088,
      "per": 1089,
      "à¤¿à¤Ĥ": 1090,
      "Ġà°ı": 1091,
      "ĠÐºÐ¾ÑĤÐ¾ÑĢ": 1092,
      "Ġà°Ł": 1093,
      "ĠÐºÐ°Ðº": 1094,
      "Ġser": 1095,
      "Ġap": 1096,
      "ÑĢÐµÐ¼": 1097,
      "¤«": 1098,
      "à¤«": 1099,
      "°·": 1100,
      "à°·": 1101,
      "ÑĤÐ¾ÑĢ": 1102,
      "à°¾à°¸": 1103,
      "ica": 1104,
      "à¥ĭà¤¨": 1105,
      "Ġmu": 1106,
      "ĠÐĵ": 1107,
      "Ġà¤Ł": 1108,
      "10": 1109,
      "à±įà°¦": 1110,
      "à¥įà¤¥": 1111,
      "Ġac": 1112,
      "Ð¼Ñĥ": 1113,
      "Ð¼Ñĸ": 1114,
      "ÑĨÑĸÑĹ": 1115,
      "for": 1116,
      "Ġres": 1117,
      "à±Ģà°¸": 1118,
      "à¤¾à¤¥": 1119,
      "Ðł": 1120,
      "ÐºÑĢÐ°ÑĹ": 1121,
      "Ð¸ÑĤÑĮ": 1122,
      "ales": 1123,
      "ĠÐ¹": 1124,
      "und": 1125,
      "ĠÑģÐ¾": 1126,
      "?Ċ": 1127,
      "ug": 1128,
      "ÑĢÐ°Ð½": 1129,
      "Ġwe": 1130,
      "Ġà¤ķà¤¹": 1131,
      "ÑĭÑħ": 1132,
      "Ð¼ÐµÐ½": 1133,
      "Ġab": 1134,
      "ÑĤÐµÑĢ": 1135,
      "à°¾à°²à°¨": 1136,
      "Ġim": 1137,
      "à°¿,": 1138,
      "ando": 1139,
      "à¥įà¤²": 1140,
      "Ġus": 1141,
      "à±ĩà°¯": 1142,
      "ÑĸÐ·": 1143,
      "à±Ĩà°Ł": 1144,
      "Ġà¤īà¤¸": 1145,
      "à±įà°¡": 1146,
      "Ġà°Ĵ": 1147,
      "Ð³Ð¸": 1148,
      "du": 1149,
      "à¥įà¤ķ": 1150,
      "ies": 1151,
      "¤ĸ": 1152,
      "Ġcomo": 1153,
      "à¤ĸ": 1154,
      "Ġà¤¡": 1155,
      "ĠÐ±Ñĥ": 1156,
      "ÑĢÐ°Ð·": 1157,
      "ĠÐ¸Ð½": 1158,
      "ĠThe": 1159,
      "à°¾à°ľ": 1160,
      "ĠÑģÐ°Ð¼": 1161,
      "Ð½Ð¾Ð²": 1162,
      "ment": 1163,
      "ÑĸÑĹ": 1164,
      "Ġà¤¸à¤ķ": 1165,
      "Ðľ": 1166,
      "Ð¼Ðµ": 1167,
      "ÐºÐ¾Ð½": 1168,
      "all": 1169,
      "ĠÑģÐ²": 1170,
      "Ð°Ð·": 1171,
      "ĠmÃ¡s": 1172,
      "à¤¾à¤ĩ": 1173,
      "ĠÐ¼Ð¸": 1174,
      "port": 1175,
      "Ġà°«": 1176,
      "Ð½Ð¾Ðµ": 1177,
      "Ð¾Ð´Ð°": 1178,
      "Ð½Ð°Ñı": 1179,
      "ĠV": 1180,
      "Ġch": 1181,
      "Ð¶Ð°": 1182,
      "ub": 1183,
      "aj": 1184,
      "à±ģ.Ċ": 1185,
      "'s": 1186,
      "Ġnot": 1187,
      "ard": 1188,
      "ĠIn": 1189,
      "Ġà°¡": 1190,
      "og": 1191,
      "Ð¸Ð²": 1192,
      "Ð½Ð¸Ðµ": 1193,
      "ÐµÐ³Ð¾": 1194,
      "ect": 1195,
      "ÑĤÐ¾Ð¼": 1196,
      "Ð±Ð¾": 1197,
      "ust": 1198,
      "à±ĩà°°": 1199,
      "à±įà°Ĺ": 1200,
      "Ð½ÑĭÐ¼": 1201,
      "Ġà°¯": 1202,
      "ĠÐ»Ð¸": 1203,
      "ÐµÑħ": 1204,
      "Ġqu": 1205,
      "ÑĥÑĢ": 1206,
      "go": 1207,
      "ido": 1208,
      "ost": 1209,
      "Ð½Ð¸Ð¼": 1210,
      "ĠÑģÐ»": 1211,
      "Ġad": 1212,
      "ive": 1213,
      "Ð½Ð¾ÑģÑĤÐ¸": 1214,
      "ÑģÑĮÐº": 1215,
      "ĠÑĢÐµ": 1216,
      "à±ĥ": 1217,
      "à°¿.Ċ": 1218,
      "ĠÐ¿Ð¾ÑĤ": 1219,
      "Ð±Ð¾ÑĤ": 1220,
      "ÑĭÐ¹": 1221,
      "ity": 1222,
      "à±Ĥà°°": 1223,
      "ÑĶÑĤÑĮÑģÑı": 1224,
      "Ġpl": 1225,
      "ÑİÑĤÑĮ": 1226,
      "ĠÐ·Ð½Ð°": 1227,
      "ciÃ³n": 1228,
      "Ġco": 1229,
      "°¶": 1230,
      "à°¶": 1231,
      "ÑĢÑı": 1232,
      "Ġà°ªà°°": 1233,
      "Ð£": 1234,
      "à¥Īà¤Ĥà¥¤": 1235,
      "Ġà°¸à°®": 1236,
      "Ġsh": 1237,
      "Ġby": 1238,
      "ÑĭÐ²Ð°": 1239,
      "),": 1240,
      "ÑģÑĤÐ²Ð°": 1241,
      "Ġhave": 1242,
      "ĠÐĺ": 1243,
      "Ġthis": 1244,
      "ma": 1245,
      "Ð¸ÑĤÐµÐ»ÑĮ": 1246,
      "Ð½Ð¾ÑģÑĤÑĮ": 1247,
      "ÑĸÑĤ": 1248,
      "ĠÐ´Ðµ": 1249,
      "ĠÐ¼Ð°": 1250,
      "Ġent": 1251,
      "Ð·Ð½Ð°": 1252,
      "ÑĥÐ±": 1253,
      "ÑĤÐ¸Ñĩ": 1254,
      "à°¿à°·": 1255,
      "ÑĥÑģ": 1256,
      "200": 1257,
      "Ð¸Ñħ": 1258,
      "à±Ģà°²": 1259,
      "Ġfrom": 1260,
      "à¤¿à¤¶": 1261,
      "Ġà¤Ĺà¤¯": 1262,
      "à¥ģà¤²": 1263,
      "Ġte": 1264,
      "Ð»Ð°Ð´": 1265,
      "lic": 1266,
      "à¤¿à¤µ": 1267,
      "Ġpre": 1268,
      "Ġcont": 1269,
      "art": 1270,
      "ÑĦÐ¾ÑĢ": 1271,
      "ore": 1272,
      "à¥įà¤¹": 1273,
      "ĠÐ¿Ð¾Ðº": 1274,
      "ÐĹ": 1275,
      "à¤ķà¤°": 1276,
      "ados": 1277,
      "Ġà°Ĵà°ķ": 1278,
      "ight": 1279,
      "Ġhas": 1280,
      "Ð°ÑĢÐ°": 1281,
      "à±ĩà°ķ": 1282,
      "ĠÐ²Ð¾": 1283,
      "ok": 1284,
      "Ð¾Ð´Ñĥ": 1285,
      "ĠÐ²Ð°": 1286,
      "ĠÐ±ÐµÐ·": 1287,
      "à¤¾à¤ı": 1288,
      "ens": 1289,
      "Ġar": 1290,
      "ĠÐĽ": 1291,
      "!Ċ": 1292,
      "out": 1293,
      "à¤Ĥà¤¤": 1294,
      "à¥ĩà¤¤": 1295,
      "uest": 1296,
      "Ġà°īà°¨": 1297,
      "Ġdis": 1298,
      "Ðĺ": 1299,
      "ĠÐ¸Ð»Ð¸": 1300,
      "Ã¡n": 1301,
      "à¥ĩà¤Ł": 1302,
      "Ġà¤ªà¤¹": 1303,
      "ĠÐ¾ÑĢ": 1304,
      "Ð¸Ð»": 1305,
      "Ð°Ñħ": 1306,
      "Ð²Ð¾ÑĢ": 1307,
      "Ð°ÑĤÑĮ": 1308,
      "ios": 1309,
      "mo": 1310,
      "à¥Ģà¤¨": 1311,
      "ide": 1312,
      "à°¾à°ª": 1313,
      "Ġà¤²à¤Ĺ": 1314,
      "cl": 1315,
      "able": 1316,
      "Ð¸ÑĤÐ¸": 1317,
      "ult": 1318,
      "Ġà¤¸à¤ķà¤¤": 1319,
      "era": 1320,
      "Ġà¤¹à¤®": 1321,
      "ine": 1322,
      "ÑĢÐ¾Ð±": 1323,
      "à¥ĭà¤°": 1324,
      "ess": 1325,
      "Ð¾ÑĹ": 1326,
      "Ñĳ": 1327,
      "à¤¾à¤ķ": 1328,
      "ÑĥÑĩ": 1329,
      "ÑĥÐ»ÑĮ": 1330,
      "ÑģÑĤÐ°Ð½": 1331,
      "ÑĸÑı": 1332,
      "ell": 1333,
      "ÑĢÐ¾Ð¼": 1334,
      "à°¿à°Ł": 1335,
      "ĠÑĹ": 1336,
      "à°¿à°¦": 1337,
      ";Ċ": 1338,
      "ÑıÐ·": 1339,
      "Ġcan": 1340,
      "ire": 1341,
      "Ð½Ð¾Ð¼": 1342,
      "ual": 1343,
      "ante": 1344,
      "con": 1345,
      "uld": 1346,
      "ÐºÐµ": 1347,
      "ast": 1348,
      "ĠÐ²Ð¾Ð·": 1349,
      "à¤¾à¤Ī": 1350,
      "ÐºÐ°Ð·": 1351,
      "ĠÑįÑĤÐ¾": 1352,
      "ores": 1353,
      "ÑĸÑĩ": 1354,
      "ĠÑģÐº": 1355,
      "à±Ģà°ķ": 1356,
      "Ð°Ð¼Ð¸": 1357,
      "ome": 1358,
      "à±Ĭà°¨": 1359,
      "ĠÐºÐ¾Ð»": 1360,
      "Ð¾Ñİ": 1361,
      "ĠÑĤÐ¾": 1362,
      "à¤¾,": 1363,
      "Ġgo": 1364,
      "ÑĢÑĭ": 1365,
      "Ġman": 1366,
      "ĠÐºÐ¾Ð¼Ð¿": 1367,
      "Ġem": 1368,
      "ico": 1369,
      "ÐµÑģÑĤÐ²": 1370,
      "à±ĭà°²": 1371,
      "iÃ³n": 1372,
      "ÑīÐµ": 1373,
      "ĠÐ·Ð°Ð¿": 1374,
      "à¥ĩà¤¨": 1375,
      "Ġà¤¬à¤¨": 1376,
      "Ð±Ð¸": 1377,
      "ĠK": 1378,
      "âĢ¦": 1379,
      "ÑĥÐ¶": 1380,
      "à¥Īà¤¸": 1381,
      "à±įà°°à°®": 1382,
      "ĠÐ´ÑĢÑĥ": 1383,
      "à±ĭà°µ": 1384,
      "à¥ĭà¤¤": 1385,
      "ec": 1386,
      "Ð½Ð¸ÐºÐ°": 1387,
      "Ġk": 1388,
      "ĠÐ½Ð°Ð¿": 1389,
      "ĠÑĩÐ°": 1390,
      "à±Ĭà°Ĥ": 1391,
      "Ġà¤ķà¤°à¤¤": 1392,
      "à±ĭà°Ĺ": 1393,
      "ĠÐ²ÑģÐµ": 1394,
      "ear": 1395,
      "Ð¼ÐµÑĢ": 1396,
      "Ð¾Ð»ÑĮÐºÐ¾": 1397,
      "Ġtra": 1398,
      "à¥ĩà¤²": 1399,
      "ans": 1400,
      "bre": 1401,
      "ich": 1402,
      "Ð»ÐµÐº": 1403,
      "à¥ģà¤ķ": 1404,
      "à±ĭà°¸": 1405,
      "emp": 1406,
      "âĢĻs": 1407,
      "à¥įà¤¦": 1408,
      "ĠâĢĺ": 1409,
      "à¥ĩà¤°": 1410,
      "Ġà°ħà°µ": 1411,
      "à°Ĥà°ļ": 1412,
      "à¥įà¤ª": 1413,
      "ĠÐ£ÐºÑĢÐ°ÑĹ": 1414,
      "à±Ģà°¨": 1415,
      "Ġà¤ħà¤¨": 1416,
      "Ð¾Ð»Ð¾Ð³": 1417,
      "Ġgr": 1418,
      "Ġwill": 1419,
      "Ð¾ÑĢÐ¾": 1420,
      "ÑģÐ»Ð¸": 1421,
      "ÑĥÐ½": 1422,
      "à¥Ī,": 1423,
      "à±Ĩà°ª": 1424,
      "ice": 1425,
      "ĠY": 1426,
      "à¤¾à¤ª": 1427,
      "ak": 1428,
      "à±Ĩà°°": 1429,
      "Ġall": 1430,
      "Ġà¤ĺ": 1431,
      "ÐºÐ¾Ð¼": 1432,
      "à¥ģà¤¨": 1433,
      "Ġà¤Ĩà¤ªà¤ķ": 1434,
      "à±Ĩà°¨": 1435,
      "ĠÐ¿ÑĢÐ¾Ð²": 1436,
      "15": 1437,
      "ero": 1438,
      "Ð°Ð³": 1439,
      "Ðķ": 1440,
      "av": 1441,
      "amb": 1442,
      "à¤¼à¤¾": 1443,
      "Ð¾Ñı": 1444,
      "Ġinter": 1445,
      "à°Ĥà°ª": 1446,
      "gr": 1447,
      "à±į,": 1448,
      "à°¾à°¬": 1449,
      "form": 1450,
      "ĠÑģÐµÑĢ": 1451,
      "à¥įà¤ļ": 1452,
      "one": 1453,
      "à°¿à°ľ": 1454,
      "ÑģÑĤÐ°Ð²": 1455,
      "Ġcl": 1456,
      "ÑĢÐ¾Ð´": 1457,
      "à¤Ĥà¤Ĺ": 1458,
      "ĠÐ¿Ð¾Ð¼": 1459,
      "à±ĭà°°": 1460,
      "Ð½Ð¸ÑĨ": 1461,
      "so": 1462,
      "ber": 1463,
      "12": 1464,
      "ĠÑĶ": 1465,
      "à±ģà°ª": 1466,
      "ÑĪÐ°": 1467,
      "à±ĩà°¨": 1468,
      "ĠÐºÑĢÐ°": 1469,
      "Ġrec": 1470,
      "ĠÑĨÐµ": 1471,
      "ÑģÑĤÐ°": 1472,
      "ĠÐ¿Ð¾ÑģÑĤ": 1473,
      "ÑĸÑģ": 1474,
      "Ġà¤µà¤¹": 1475,
      "à°¾à°§": 1476,
      "Ġpue": 1477,
      "ÑĨÑĸÐ¹": 1478,
      "à±ĩà°µ": 1479,
      "ÑĤÑı": 1480,
      "Ġpart": 1481,
      "Ġdo": 1482,
      "à±Ģà°µ": 1483,
      "ure": 1484,
      "ĠÐºÐ¾ÑĢ": 1485,
      "ge": 1486,
      "ĠÐĿÐ°": 1487,
      "ÑĶÐ¼": 1488,
      "Ðĳ": 1489,
      "Ð¶Ð´": 1490,
      "à±įà°°à°¤": 1491,
      "Ġsus": 1492,
      "Ġà°ħà°¯": 1493,
      "ÑģÐ»": 1494,
      "Ġact": 1495,
      "Ġà°ķà°²": 1496,
      "ĠÐķ": 1497,
      "pl": 1498,
      "ÑĥÐ²Ð°Ð½Ð½Ñı": 1499,
      ").": 1500,
      "ĠÐ¿Ð¾ÑĢ": 1501,
      "à±Ĩà°ķ": 1502,
      "Ġyour": 1503,
      "ĠTh": 1504,
      "ÐºÐ¸Ðµ": 1505,
      "à¤Ĥà¤¦": 1506,
      "fer": 1507,
      "Ġcar": 1508,
      "ĠÐ¯": 1509,
      "Ġwor": 1510,
      "ÑıÐ²": 1511,
      "Ð½ÑĥÑİ": 1512,
      "ĠÐµÐ³Ð¾": 1513,
      "ÐµÐ½Ð¸Ð¹": 1514,
      "ener": 1515,
      "Ð¾Ð´Ð¸": 1516,
      "Ð¿Ð¾Ð²": 1517,
      "à¥Ģà¥¤": 1518,
      "ĠÐ°Ðº": 1519,
      "ca": 1520,
      "Ð½Ð¾Ð¼Ñĥ": 1521,
      "erson": 1522,
      "Ð¾ÑĢÐ°": 1523,
      "à°¿à°ļ": 1524,
      "ĠÑĢÐ°Ð±Ð¾ÑĤ": 1525,
      "à¤¾à¤¬": 1526,
      "Ð½ÑĮ": 1527,
      "Ġam": 1528,
      "à¥ĥ": 1529,
      "iento": 1530,
      "co": 1531,
      "ÑĢÐ¾Ñģ": 1532,
      "ind": 1533,
      "à±ģà°¸": 1534,
      "ĠÐ´Ð°": 1535,
      "Ġpres": 1536,
      "ÑİÑĤÑģÑı": 1537,
      "¤¢": 1538,
      "à¤¢": 1539,
      "à¥ĩà¤¸": 1540,
      "ĠÐ´Ð¾Ð»": 1541,
      "ros": 1542,
      "amos": 1543,
      "ĠÐ°Ð²": 1544,
      "Ġbut": 1545,
      "act": 1546,
      "ĠÑģÐ¾Ð±": 1547,
      "Ġà¤®à¤¹": 1548,
      "ĠÑģÐ»Ñĥ": 1549,
      "à±ĩà°Ĥ": 1550,
      "à±ĭà°ľ": 1551,
      "à°¾à°£": 1552,
      "Ð½Ð¾ÑģÑĤÑĸ": 1553,
      "à±ģà°¦": 1554,
      "ÑĸÑĢ": 1555,
      "Ã©n": 1556,
      "her": 1557,
      "ÑģÑĤÐ²ÐµÐ½": 1558,
      "Ġà¤¸à¤°": 1559,
      "à±ĭà°Ł": 1560,
      "Ġsi": 1561,
      "ÐµÑĢÐ¶": 1562,
      "ite": 1563,
      "Ð°Ð½Ñĸ": 1564,
      "à¥Ģà¤¯": 1565,
      "ĠÐ¾Ð½": 1566,
      "ĠÐ§": 1567,
      "30": 1568,
      "ĠÑģÑĥ": 1569,
      "The": 1570,
      "Ð°ÑĤÐµÐ»ÑĮ": 1571,
      "à¤¾à¤Ĺ": 1572,
      "ĠÐ½Ð¾": 1573,
      "ĠÑįÑĤ": 1574,
      "Ð±Ñĥ": 1575,
      "ame": 1576,
      "ÐºÐ¾ÑĹ": 1577,
      "Ð¿ÑĢÐ¸": 1578,
      "à¥Ģà¤ķ": 1579,
      "ĠÐ¶Ðµ": 1580,
      "à±ĭà°¯": 1581,
      "cial": 1582,
      "ÑĢÐ¾Ð²Ð°": 1583,
      "ack": 1584,
      "ÐµÐµ": 1585,
      "encia": 1586,
      "Ġà¤ħà¤§": 1587,
      "à±Į": 1588,
      "ll": 1589,
      "Ð¸Ðº": 1590,
      "Ð¾Ð»ÑĮÐ·": 1591,
      "ĠÑĢÐ¾Ðº": 1592,
      "ĠÑĩÐµÑĢ": 1593,
      "Â»,": 1594,
      "18": 1595,
      "Ġreal": 1596,
      "pres": 1597,
      "pt": 1598,
      "à°µà°°": 1599,
      "ĠÐ¿Ð¾Ð·": 1600,
      "à±įà°§": 1601,
      "ong": 1602,
      "ĠCh": 1603,
      "Ñį": 1604,
      "ff": 1605,
      "ase": 1606,
      "cho": 1607,
      "ru": 1608,
      "ĠÑĩÐ°Ñģ": 1609,
      "ida": 1610,
      "int": 1611,
      "Ġag": 1612,
      "à¥Īà¥¤Ċ": 1613,
      "à¥Ģà¤°": 1614,
      "Ð²ÐµÑĤ": 1615,
      "à¥Ī.": 1616,
      "à±Ģà": 1617,
      "à±Ģà°": 1618,
      "Ð¾Ð³ÑĢÐ°": 1619,
      "à±ĩà°Ł": 1620,
      "à¥ĩà¤ĸ": 1621,
      "ĠÐĨ": 1622,
      "à±Ĩà°¡": 1623,
      "Ġob": 1624,
      "ould": 1625,
      "ck": 1626,
      "Ðĵ": 1627,
      "Ð¾Ð²Ð¾ÑĢ": 1628,
      "cer": 1629,
      "¤ł": 1630,
      "à¤ł": 1631,
      "amente": 1632,
      "à¥ĭà¤¡": 1633,
      "Ġà¤Ľ": 1634,
      "Ð¾Ð½Ð°": 1635,
      "Ġtod": 1636,
      "ĠÐ¤": 1637,
      "Ġev": 1638,
      "ĠÐ¼ÐµÐ½": 1639,
      "Ð¸ÑĩÐµÑģ": 1640,
      "ov": 1641,
      "Ġà¤§": 1642,
      "ÐµÑĤÐµ": 1643,
      "ÑīÐ°": 1644,
      "Ġà¤īà¤¨à¤ķ": 1645,
      "Ġcons": 1646,
      "Ġcre": 1647,
      "Ġhis": 1648,
      "ach": 1649,
      "Ð»Ð°Ñģ": 1650,
      "Ġup": 1651,
      "ĠAn": 1652,
      "ÑĤÐ¾Ð²": 1653,
      "Ġà°¤à°¨": 1654,
      "ÐµÐ½Ð¸Ð¸": 1655,
      "Ġperson": 1656,
      "ÐºÐ¾Ð¹": 1657,
      "Ð±Ð°": 1658,
      "à±ĭà°Ĥ": 1659,
      "ions": 1660,
      "à±įà°¯à°ķ": 1661,
      "ew": 1662,
      "ĠÐ½Ð¾Ð²": 1663,
      "Ġout": 1664,
      "Ġà¤¤à¤ķ": 1665,
      "uer": 1666,
      "ÐºÐ¸Ð¼": 1667,
      "...": 1668,
      "à±ģà°®": 1669,
      "à±ĭà°ķ": 1670,
      "Ġver": 1671,
      "age": 1672,
      "les": 1673,
      "ign": 1674,
      "Ð¸Ð»Ð¸": 1675,
      "Ð¸Ð»ÑĮ": 1676,
      "ÑĨÐ¸Ñı": 1677,
      "à¥ĩà¥¤": 1678,
      "à±ĩà°·": 1679,
      "à¥įà¤¨": 1680,
      "ÑĤÑĢ": 1681,
      "ÑĩÐµÐ½": 1682,
      "Ð¸ÑĤÐµ": 1683,
      "ÑĥÐ²Ð°ÑĤÐ¸": 1684,
      "Ġà°µà°°": 1685,
      ")Ċ": 1686,
      "Ġà°µà°ļ": 1687,
      "Ġà¤¤à¤°": 1688,
      "ian": 1689,
      "ĠÑĦÐ¾ÑĢ": 1690,
      "Ð¸Ð´": 1691,
      "ĠÐ²ÑĢÐµÐ¼": 1692,
      "ĠÐ±Ð¾Ð»ÑĮ": 1693,
      "ial": 1694,
      "unt": 1695,
      "ÑģÑĤÐ²Ð¾": 1696,
      "ord": 1697,
      "ÑĢÐ¾Ðº": 1698,
      "à¥ģà¤¤": 1699,
      "à°¿à°¡": 1700,
      "ĠÐ·Ð´": 1701,
      "ĠÐ¸ÑģÐ¿": 1702,
      "pa": 1703,
      "ĠÑıÐºÑĸ": 1704,
      "ÑģÐ°": 1705,
      "Ġsin": 1706,
      "ated": 1707,
      "ĠÐ´Ð¾ÑģÑĤ": 1708,
      "Ġthey": 1709,
      "à¥Ģà¤¤": 1710,
      "à±Ĩà°¸": 1711,
      "Ġà°ľà°°": 1712,
      "ĠÑĢÐ¾Ð±": 1713,
      "ĠEn": 1714,
      "à¥įà¤¯à¤ķ": 1715,
      "ical": 1716,
      "ĠÐ½Ð°Ð´": 1717,
      "ÐºÑĸÐ²": 1718,
      "Ð¾Ðµ": 1719,
      "à¥Ģà¤®": 1720,
      "Ġsa": 1721,
      "Ð¾Ð±Ñĭ": 1722,
      "com": 1723,
      "à¥ĭà¤²": 1724,
      "ĠÑĢÐ°Ñģ": 1725,
      "ĠUn": 1726,
      "Ð·Ð¸": 1727,
      "Ð»ÐµÐ¼": 1728,
      "ĠÐ¿ÑĢÐ¾ÑģÑĤ": 1729,
      "Ġeste": 1730,
      "Ð¾Ð»Ð¾Ð²": 1731,
      "à¥ĭà¤ľ": 1732,
      "ina": 1733,
      "11": 1734,
      "ime": 1735,
      "Ġà°¤à°°": 1736,
      "Ð¾Ð³Ð´Ð°": 1737,
      "Ð¼Ð¾Ð¶": 1738,
      "Ð¾ÑģÑĮ": 1739,
      "Ð½Ð¾Ñİ": 1740,
      "Ġmed": 1741,
      "Ġro": 1742,
      "Ġ,": 1743,
      "Ġà¤ķà¤®": 1744,
      "à°¦à°¨": 1745,
      "à±ĭà°¤": 1746,
      "ose": 1747,
      "ĠÐ½Ð°Ñģ": 1748,
      "ple": 1749,
      "ĠÐ´Ð¾Ð¿": 1750,
      "ĠÐ¿ÐµÑĢÐµÐ´": 1751,
      "Ð°ÑĢÑĤ": 1752,
      "50": 1753,
      "Ð°ÑĤÐ¸": 1754,
      "ÐĽ": 1755,
      "emos": 1756,
      "aciones": 1757,
      "Ġà¤ĩà¤¸à¤ķ": 1758,
      "à¥ĩà¤ľ": 1759,
      "Ð½ÑĭÐ¼Ð¸": 1760,
      "Ð¸ÑģÑĤÐµÐ¼": 1761,
      "Ð½Ñİ": 1762,
      "Ġà¤Ĳ": 1763,
      "ĠÑĨÑĸ": 1764,
      "ĠÐ¾Ñĩ": 1765,
      "ĠÐ¼Ð°ÑĤ": 1766,
      "Ġà¤ªà¤¹à¤²": 1767,
      "Ġmore": 1768,
      "Ġpe": 1769,
      "ÑĪÐ¸Ñħ": 1770,
      "Ð½ÑĸÑģÑĤÑĮ": 1771,
      "ĠÐ¦": 1772,
      "Ð²Ð¾Ð´": 1773,
      "ĠRe": 1774,
      "ĠÐ¥": 1775,
      "oy": 1776,
      "à±Ĩà°³": 1777,
      "ÑĥÑħ": 1778,
      "à¤¾à¤ĵ": 1779,
      "||": 1780,
      "Ð¾Ð»Ð¸": 1781,
      "Ġtheir": 1782,
      "ĠÑĤÐ¾Ð³Ð¾": 1783,
      "à¥ģà¤Ľ": 1784,
      "Ġmy": 1785,
      "Ð°Ð»Ð¾": 1786,
      "ĠÐ½ÐµÐ¾Ð±": 1787,
      "ĠÐ°Ð±Ð¾": 1788,
      "ĠÑģÑĤÑĢÐ°": 1789,
      "Ð½Ð¸Ð¸": 1790,
      "Ð°Ð»Ñĸ": 1791,
      "ish": 1792,
      "ĠÐ¾ÑģÐ¾Ð±": 1793,
      "°ħ": 1794,
      "à°ħ": 1795,
      "ÑĬ": 1796,
      "ÑĢÐ¸Ð¼": 1797,
      "der": 1798,
      "Ġhab": 1799,
      "à±ĩà°²": 1800,
      "ĠÐ¿ÑĢÐ¾ÑĨ": 1801,
      "ÐµÑĢÐ¸": 1802,
      "Ġmar": 1803,
      "za": 1804,
      "Ġone": 1805,
      "Ð³Ñĥ": 1806,
      "Ġà°Ĩà°°": 1807,
      "à°¿à°¶": 1808,
      "¤Ĩ": 1809,
      "à¤Ĩ": 1810,
      "Ð´Ñĸ": 1811,
      "Ð¶Ð¸": 1812,
      "ĠaÃ±": 1813,
      "ĠÐ¼Ð¾Ð¶Ð½Ð¾": 1814,
      "à¥įà¤¡": 1815,
      "Ġcas": 1816,
      "à¥įà¤°à¤¤": 1817,
      "à¤Ĥà¤¡": 1818,
      "Ġsol": 1819,
      "Ġà°®à°¨": 1820,
      "Ġà°ĩà°¦": 1821,
      "ÑĩÐµÑģ": 1822,
      "âĢĶ": 1823,
      "Ġson": 1824,
      "à¥ĩà¤µ": 1825,
      "ĠÐ´Ð¸": 1826,
      "ĠÐ¿Ð»Ð°": 1827,
      "à¥ģà¤ı": 1828,
      "Ð¤": 1829,
      "à±įà°¬": 1830,
      "¤¥": 1831,
      "à¤¥": 1832,
      "ake": 1833,
      "ras": 1834,
      "ĠSt": 1835,
      "ĠÑĤÐµÐ¼": 1836,
      "ĠÐ°Ð½": 1837,
      "Ð°Ð½Ð°": 1838,
      "à±Ĥà°ª": 1839,
      "ÑģÑĤÐ²Ð¸": 1840,
      "Ġmay": 1841,
      "ĠÐ¿Ð¾Ð¿": 1842,
      "use": 1843,
      "ÑĤÑĭ": 1844,
      ").Ċ": 1845,
      "Ð¾ÑĢÐ¸": 1846,
      "ÑĦÐ¸": 1847,
      "Ġabout": 1848,
      "à°¾à°·": 1849,
      "ĠÑģÐ¸ÑģÑĤÐµÐ¼": 1850,
      "Ġà¤īà¤ª": 1851,
      "Ð»ÐµÐ½Ð¸Ñı": 1852,
      "ora": 1853,
      "Ġpas": 1854,
      "Ð¶ÐµÐ½": 1855,
      "¤·": 1856,
      "à¤·": 1857,
      "ĠÐ·Ð°Ð±": 1858,
      "ÐµÑĢÐµÐ´": 1859,
      "ario": 1860,
      "rit": 1861,
      "Ġfin": 1862,
      "ile": 1863,
      "Ġher": 1864,
      "à±ĩà°¤": 1865,
      "ĠÐ³ÑĢÑĥ": 1866,
      "ÐµÑģÑĮ": 1867,
      "à¥ģà¤®": 1868,
      "Ġcol": 1869,
      "ÑİÑīÐ¸": 1870,
      "ĠÐŃ": 1871,
      "ĠÐ³Ð¾ÑĢ": 1872,
      "ÑĸÐº": 1873,
      "Ġprodu": 1874,
      "Ġmis": 1875,
      "à¤¿à¤Ł": 1876,
      "ÐĨ": 1877,
      "pon": 1878,
      "are": 1879,
      "ĠÐ¼ÐµÑĤ": 1880,
      "à¤¼à¥Ģ": 1881,
      "ary": 1882,
      "à±įà°°à°Ń": 1883,
      "ĠEl": 1884,
      "ambi": 1885,
      "Ġwho": 1886,
      "ob": 1887,
      "Ġve": 1888,
      "gu": 1889,
      "à°¦à°°": 1890,
      "à¤¸à¤°": 1891,
      "mente": 1892,
      "man": 1893,
      "ÑĨÑĸÑı": 1894,
      "ike": 1895,
      "à±Ģà°¯": 1896,
      "à¤¿à¤®": 1897,
      "ĠÐ¹Ð¾Ð³Ð¾": 1898,
      "Ð¾ÑĤÐ¾Ð²": 1899,
      "ĠÐ£ÐºÑĢÐ°ÑĹÐ½Ð¸": 1900,
      "Ð½ÑĸÐ¹": 1901,
      "Ð¾ÑģÑĤÑĸ": 1902,
      "ĠÐ½Ð¸": 1903,
      "ÑĥÑĤÑĮ": 1904,
      "ĠÑĥÐ¿": 1905,
      "adas": 1906,
      "Ð½Ð¸Ð¼Ð¸": 1907,
      "Ġà¤¬à¤¹": 1908,
      "Ġpos": 1909,
      "ĠÐ¾ÑĢÐ³": 1910,
      "ran": 1911,
      "à¥ĭà¤Ł": 1912,
      "Ð¶ÐµÐ½Ð½Ñı": 1913,
      "à¥Ģà¤ľ": 1914,
      "ÑģÐºÐ¾Ð¹": 1915,
      "ÐºÑĸ": 1916,
      "ne": 1917,
      "ÐµÑĨ": 1918,
      "ÑĨÐ¸Ð¾Ð½": 1919,
      "Ġà°ķà°¨": 1920,
      "ĠÐ¿Ð¾Ñĩ": 1921,
      "à¤¾à¤°à¤¤": 1922,
      "El": 1923,
      "¤ĩ": 1924,
      "à¤ĩ": 1925,
      "ĠLa": 1926,
      "ĠÐ·Ð°Ðº": 1927,
      "ÐĿÐ°": 1928,
      "ĠÑĥÑĩÐ°": 1929,
      "Ġà°ħà°¤": 1930,
      "ĠÐ½Ð°Ð¹": 1931,
      "à¥įà¤§": 1932,
      "Ġpod": 1933,
      "à°Ĥà°ķ": 1934,
      "à¥Ĥà¤ª": 1935,
      "Ã©s": 1936,
      "ĠÑĤÐ¾Ð»ÑĮÐºÐ¾": 1937,
      "à±ģà°Ł": 1938,
      "ÐµÑģÑĤÐ¸": 1939,
      "ater": 1940,
      "¤ħ": 1941,
      "à¤ħ": 1942,
      "à¤¿à¤ľ": 1943,
      "14": 1944,
      "ÑĤÑĸ": 1945,
      "ĠÐ»ÑİÐ±": 1946,
      "à±ĩà°®": 1947,
      "Ð¸ÑĤÐ°": 1948,
      "ĠÐ½Ð°ÑĪ": 1949,
      "ura": 1950,
      "ain": 1951,
      "ĠÑģÑĤÐ°Ð½": 1952,
      "Ġà°ħà°§": 1953,
      "ÑīÐ¾": 1954,
      "°«": 1955,
      "à°«": 1956,
      "Ġà°ĵ": 1957,
      "Ġtien": 1958,
      "Ð²Ð°Ð½Ð½Ñı": 1959,
      "ĠÐ²Ð¸Ðº": 1960,
      "ther": 1961,
      "ĠÑģÐ¾ÑģÑĤ": 1962,
      "ĠÐ±Ð¾Ð»": 1963,
      "ÑģÑĤÑĥÐ¿": 1964,
      "Ð¯": 1965,
      "16": 1966,
      "à¤¾à¤«": 1967,
      "à±įà°£": 1968,
      "Ð½Ð¸ÐºÐ¸": 1969,
      "lect": 1970,
      "à±Ĥà°¸": 1971,
      "ÑĦÐ¾ÑĢÐ¼Ð°": 1972,
      "ĠÐŁÑĢÐ¸": 1973,
      "Ð½Ð¸Ð¼Ð°": 1974,
      "à¥ĩà¤Ĺ": 1975,
      "ĠÐ¸Ñħ": 1976,
      "Ð»Ð¸Ð²": 1977,
      "ÐµÑģÐ¿": 1978,
      "à°¾à°¹": 1979,
      "à°¯à°¨": 1980,
      "ÑģÑĤÑĢÐ°": 1981,
      "à°Ĥà°§": 1982,
      "à¥Įà¤°": 1983,
      "ÐµÐ½Ð°": 1984,
      "ÐºÐ°Ð¼Ð¸": 1985,
      "Ġdon": 1986,
      "ĠÐ²Ð¿": 1987,
      "ĠÑĤÐµÑĢ": 1988,
      "Ġà¤īà¤¸à¤ķ": 1989,
      "à°¿à°§": 1990,
      "ÑĨÑı": 1991,
      "ÑģÑĮÐºÐ¾Ð³Ð¾": 1992,
      "ĠÑģÐ¾Ð²": 1993,
      "à°¾à°³": 1994,
      "ĠÐ¼Ñĭ": 1995,
      "Ð¸ÑĤÑģÑı": 1996,
      "ĠÑģÐµÐ±": 1997,
      "gan": 1998,
      "ÑĸÐ¼": 1999,
      "ÑĥÑĪ": 2000,
      "Ġdif": 2001,
      "202": 2002,
      "à¤Ĺà¤°": 2003,
      "Ġà¤¸à¤¬": 2004,
      "Ġà°¸à°°": 2005,
      "à¥Ģ,": 2006,
      "Ġreg": 2007,
      "Ġà°ħà°²": 2008,
      "vel": 2009,
      "ÑĭÐ¼": 2010,
      "Ð³ÑĢÐ°": 2011,
      "Ãºn": 2012,
      "min": 2013,
      "ĠCon": 2014,
      "°¥": 2015,
      "à°¥": 2016,
      "Ð¾ÑģÑĤÐ¸": 2017,
      "âĢĵ": 2018,
      "Ġà¤¬à¤¤": 2019,
      "Ġinv": 2020,
      "ĠÑĢÐµÐ·": 2021,
      "à¥ĭà¤Ī": 2022,
      "ĠÑģÐ¼": 2023,
      "ÑĤÐ¾Ð±Ñĭ": 2024,
      "Ġaf": 2025,
      "Ġà°ħà°¦": 2026,
      "à¥įà¤ľ": 2027,
      "à±ĩà°ª": 2028,
      "ĠÐ²ÐµÑĢ": 2029,
      "ance": 2030,
      "Ġpero": 2031,
      "ÑĨÐµ": 2032,
      "à±Ģà°¡": 2033,
      "ks": 2034,
      "à°²à°¨": 2035,
      "Ġà¤Ĳà¤¸": 2036,
      "Ġà¤ĩà¤¨": 2037,
      "à±įà°³": 2038,
      "cu": 2039,
      "Ġwhich": 2040,
      "ÑģÑĮÐºÐ¾ÑĹ": 2041,
      "Ð¾ÑģÑģÐ¸": 2042,
      "à°¾,": 2043,
      "à¤¾à¤§": 2044,
      "ĠÐ¼Ð¾Ð¶ÐµÑĤ": 2045,
      "Ġà¤ľà¤¬": 2046,
      "cul": 2047,
      "à¤¿à¤ª": 2048,
      "à°¾à°¶": 2049,
      "ÐµÑĤÐ°": 2050,
      "Ġincl": 2051,
      "âĢľ": 2052,
      "ÑĤÐ¸ÑĩÐµÑģ": 2053,
      "ĠÑĤÐ¸": 2054,
      "Ð»ÐµÐ½Ð½Ñı": 2055,
      "ÐºÐ°Ñı": 2056,
      "Ð¸ÑĤÑĥ": 2057,
      "Ð²Ð¾Ð»": 2058,
      "Ð»Ð°Ð²": 2059,
      "ara": 2060,
      "Ġyear": 2061,
      "Ġentre": 2062,
      "ĠÑĤÐµÑħ": 2063,
      "à±įà°¶": 2064,
      "Ġà°ħà°®": 2065,
      "ep": 2066,
      "ays": 2067,
      "Ð°Ð½Ñģ": 2068,
      "ÑĢÐ¾Ð¿": 2069,
      "Ġsobre": 2070,
      "17": 2071,
      "Ġà¤Ĺà¤Ī": 2072,
      "Ð¾ÑģÐ¿": 2073,
      "Ġpol": 2074,
      "à¥Ģà¤µ": 2075,
      "Ð¾Ð²Ð¸Ñħ": 2076,
      "ĠÐ¾Ð±Ð»Ð°": 2077,
      "à°ļà°¡": 2078,
      "Ġnuest": 2079,
      "ific": 2080,
      "Ð¾ÑĤÐ¸": 2081,
      "Ġesta": 2082,
      "ÐºÐ°Ñħ": 2083,
      "Ð±Ð¾ÑĢ": 2084,
      "ĠÐ¾ÑģÐ½Ð¾Ð²": 2085,
      "ible": 2086,
      "uev": 2087,
      "ree": 2088,
      "ĠÐ¿ÑĢÐ°Ð²": 2089,
      "no": 2090,
      "13": 2091,
      "ĠÑĢÑĥ": 2092,
      "à°²à°ķ": 2093,
      "Ġmuch": 2094,
      "ÐºÐ¾Ð³Ð¾": 2095,
      "ativ": 2096,
      "ĠÐ»Ñĸ": 2097,
      "à±Ĭà°ķ": 2098,
      "ÑģÐµ": 2099,
      "ĠÐ´Ð¾Ðº": 2100,
      "ambiÃ©n": 2101,
      "Ġinform": 2102,
      "pect": 2103,
      "Ġsal": 2104,
      "ations": 2105,
      "ĠÑĤÐµ": 2106,
      "ÑĤÑĢÐ°": 2107,
      "Ġlle": 2108,
      "ĠÐ·Ð°Ð²": 2109,
      "Ġhad": 2110,
      "Ġour": 2111,
      "ÑĤÐµÐ»ÑĮ": 2112,
      "ÑīÐµÑģÑĤÐ²": 2113,
      "Ð¿Ð¾Ð²ÑĸÐ´": 2114,
      "25": 2115,
      "ĠÑĤÑĢÐµ": 2116,
      "ÑĢÑĥÐº": 2117,
      "à¤Ĥà¤¬": 2118,
      "ĠÐ´Ð¾Ð±": 2119,
      "ĠÐ³ÑĢÐ°": 2120,
      "à±Ĭà°¤": 2121,
      "ĠÑĨÑĮ": 2122,
      "ĠÑĢÐµÐ³": 2123,
      "ÐµÑĪ": 2124,
      "ĠÑģÑĢÐµÐ´": 2125,
      "ÑĢÐµÑģ": 2126,
      "Ð»Ð°Ð½": 2127,
      "à¤¿à¤ĸ": 2128,
      "Ð°Ð»ÑĮÐ½Ð¾": 2129,
      "Ġà¤ļà¤²": 2130,
      "à¤¼à¥ĩ": 2131,
      "Ġ'": 2132,
      "Ð½ÐµÑģ": 2133,
      "entes": 2134,
      "ĠEst": 2135,
      "à±įà°°à°ķ": 2136,
      "à°Ĥ,": 2137,
      "Ġnos": 2138,
      "à±įà°ªà°Ł": 2139,
      "ÑıÑĤÑĮ": 2140,
      "ÑĥÐ·": 2141,
      "Ð¿Ð°": 2142,
      "à¥ģà¤¦": 2143,
      "Ġà°İà°¨": 2144,
      "Ġfir": 2145,
      "ld": 2146,
      "ĠÑıÐ²": 2147,
      "ÐµÑĢÑĸ": 2148,
      "ento": 2149,
      "à±ģà°²à°ķ": 2150,
      "Ġnew": 2151,
      "ÑģÐºÐ¾Ð³Ð¾": 2152,
      "ÑıÐ´": 2153,
      "ÐµÐ»Ð¾Ð²": 2154,
      "ugh": 2155,
      "ĠÐ¿ÑĢÐ¾Ð±": 2156,
      "Ð§": 2157,
      "à±ģà°²à°¨": 2158,
      "à¤¿à¤¦": 2159,
      "Ġbu": 2160,
      "Ġsome": 2161,
      "ĠÑĹÑħ": 2162,
      "mer": 2163,
      "à¥ģà¤ª": 2164,
      "Ð¾Ð³Ð¸": 2165,
      "Ð¾Ð»Ð¾Ð´": 2166,
      "ÐµÐ½ÑĤÐ°": 2167,
      "Ġind": 2168,
      "à¤Ĥà¤¸": 2169,
      "à¥įà¤°à¤¦": 2170,
      "à±Ģà°Ł": 2171,
      "|Ċ": 2172,
      "ĠSe": 2173,
      "Ġrel": 2174,
      "à¥ģà¤ĸ": 2175,
      "ĠCom": 2176,
      "ied": 2177,
      "Ġdeb": 2178,
      "ÑģÑĤÑĢ": 2179,
      "ĠÐ±ÑĥÐ´ÐµÑĤ": 2180,
      "cre": 2181,
      "cia": 2182,
      "Ġà°ªà°¨": 2183,
      "Ð¿Ð¸": 2184,
      "ely": 2185,
      "Ġany": 2186,
      "La": 2187,
      "Ġserv": 2188,
      "ÑĸÐ±": 2189,
      "own": 2190,
      "ĠÑģÐ¿Ðµ": 2191,
      "Ġà¥": 2192,
      "ents": 2193,
      "Ð¾Ñħ": 2194,
      "ĠÐ¼Ð¾Ð³": 2195,
      "à¥ģà¤Ĩ": 2196,
      "ced": 2197,
      "à±įà°ľ": 2198,
      "à±įà°ķà°¡": 2199,
      "Ġwere": 2200,
      "Ġsaid": 2201,
      "ĠÑĸÐ·": 2202,
      "Ġ.": 2203,
      "pos": 2204,
      "ÑģÑĤÐ°Ð½Ð¾Ð²": 2205,
      "Ġà°ĩà°ª": 2206,
      "da": 2207,
      "Ġwould": 2208,
      "ÑĦÐµÐº": 2209,
      "ĠÐ¸ÑģÐ¿Ð¾Ð»ÑĮÐ·": 2210,
      "à¥Ģà¤¡": 2211,
      "ĠÐ»ÑİÐ´": 2212,
      "Ġbeen": 2213,
      "Ġà¤¸à¤°à¤ķ": 2214,
      "ĠÑĥÑĩ": 2215,
      "ĠÐ¾Ðº": 2216,
      "à¥Īà¤Ĥ,": 2217,
      "ÑĥÑĶ": 2218,
      "'t": 2219,
      "ĠAl": 2220,
      "Ð²ÑĸÑĤ": 2221,
      "Ð²ÑĸÐ´": 2222,
      "Ġà¥¤": 2223,
      "Ð¾ÑĢÐ¸ÑģÑĤ": 2224,
      "ĠÑģÑĥÐ´": 2225,
      "ÑĸÐ»ÑĮÐºÐ¸": 2226,
      "ĠÐ²Ð¸Ð´": 2227,
      "Ġà¤°à¤ĸ": 2228,
      "Ð³Ð»Ñı": 2229,
      "ĠÐºÐ¾ÑĤÐ¾ÑĢÑĭÐµ": 2230,
      "ĠÑĤÐ°ÐºÐ¶Ðµ": 2231,
      "ÑĤÐ°ÑĤ": 2232,
      "Ġjust": 2233,
      "Ġfe": 2234,
      "Ġà¤ªà¤¤": 2235,
      "ĠÐ²ÑĢÐµÐ¼Ñı": 2236,
      "gh": 2237,
      "Ð°Ð»ÑĮÐ½Ð¾Ð³Ð¾": 2238,
      "ÑĩÐ°Ñģ": 2239,
      "ings": 2240,
      "Ð¹ÑĤÐµ": 2241,
      "à¥ģà¤Ĥ": 2242,
      "icos": 2243,
      "ence": 2244,
      "Ġfr": 2245,
      "ese": 2246,
      "ĠÐ¶Ð¸ÑĤ": 2247,
      "Ġprim": 2248,
      ",Ċ": 2249,
      "ior": 2250,
      "à¤Ĥà¤Ł": 2251,
      "ĠÐ¿ÑĢÐµÐ´ÑģÑĤÐ°Ð²": 2252,
      "ĠÐ´Ð¾Ð¼": 2253,
      "à±Ĭà°¦": 2254,
      "à°Ĥà°¦à°°": 2255,
      "Ġà°İà°ķ": 2256,
      "100": 2257,
      "Ġà¤ħà¤¬": 2258,
      "Ġà¤µà¤°": 2259,
      "ĠÐ½Ð°Ð²": 2260,
      "Ð»ÑıÐµÑĤÑģÑı": 2261,
      "cr": 2262,
      "Ġtime": 2263,
      "ÑĸÐ»": 2264,
      "Ġà°·": 2265,
      "ĠÐ°ÑĢ": 2266,
      "ĠIt": 2267,
      "Ð¾ÑģÑĤÑĮ": 2268,
      "erv": 2269,
      "ÐµÐ½Ð¸Ñİ": 2270,
      "ick": 2271,
      "ÐµÐ²Ð°": 2272,
      "ĠÑĩÐ°ÑģÑĤ": 2273,
      "Ð½ÐµÐ¹": 2274,
      "pr": 2275,
      "à¤¾.": 2276,
      "ÑıÑĤÐ¸": 2277,
      "ular": 2278,
      "à¤¹à¤°": 2279,
      "Ġya": 2280,
      "à¤Ĥà¤ķ": 2281,
      "En": 2282,
      "ivers": 2283,
      "den": 2284,
      "baj": 2285,
      "ias": 2286,
      "à¥Ĥà¤²": 2287,
      "à±ģà°ĸ": 2288,
      "ÑĤÑĸÐ²": 2289,
      "Ġget": 2290,
      "ÑģÑĥ": 2291,
      "ook": 2292,
      "à±Ģà°ª": 2293,
      "ĠÐĹÐ°": 2294,
      "ble": 2295,
      "ÑĪÐµÐ½": 2296,
      "Ġop": 2297,
      "Ġ:": 2298,
      "Ġaut": 2299,
      "à°¿à°·à°¯": 2300,
      "ĠÑĩÑĤÐ¾Ð±Ñĭ": 2301,
      "Ġthere": 2302,
      "par": 2303,
      "ĠÐ¼ÐµÑģÑĤ": 2304,
      "Ġcor": 2305,
      "\",": 2306,
      "Ġà°§": 2307,
      "à¥įà¤°à¤®": 2308,
      "ÑĢÑĥÐ´": 2309,
      "à°Ĥà°¬": 2310,
      "dit": 2311,
      "gun": 2312,
      "ÑıÐ½": 2313,
      "Â».": 2314,
      "Ġkn": 2315,
      "Ġthem": 2316,
      "à±ĭà°ª": 2317,
      "ĠÐ²Ð·": 2318,
      "ÑĨÑĸÐ²": 2319,
      "tra": 2320,
      "ÑĪÑĸ": 2321,
      "icas": 2322,
      "Ġoff": 2323,
      "à°¾à°°à°£": 2324,
      "ĠÐ²Ð¾Ð´": 2325,
      "ÑħÑĸÐ´": 2326,
      "Ġter": 2327,
      "ĠÐ´ÐµÐ½ÑĮ": 2328,
      "Ġalso": 2329,
      "24": 2330,
      "onal": 2331,
      "ĠÑĩÐµÑĢÐµÐ·": 2332,
      "Ġtodo": 2333,
      "ÑıÐ²Ð¸": 2334,
      "ade": 2335,
      "à±įà°°à°¯": 2336,
      "Ð¾ÑģÐ¾Ð±": 2337,
      "ÑĤÐ¸ÑģÑı": 2338,
      "iÃ³": 2339,
      "ink": 2340,
      "Ġà°Ĩà°¯à°¨": 2341,
      "ÑıÐ¼": 2342,
      "à¥ĩà¤¡": 2343,
      "ĠÐ´Ð¾Ð²": 2344,
      "ĠÐ±ÑĸÐ»ÑĮ": 2345,
      "ÑĶÐ¼Ð¾": 2346,
      "ĠÐ¿Ð°": 2347,
      "à¥ĭà¤ķ": 2348,
      "ĠÐµÑģÐ»Ð¸": 2349,
      "Ð³Ð°Ð½Ð¸": 2350,
      "ĠÑĤÐ°ÐºÐ¾Ð¶": 2351,
      "Ġlike": 2352,
      "aba": 2353,
      "ador": 2354,
      "à±ĭà°¡": 2355,
      "ĠÑĥÐ¶Ðµ": 2356,
      "ail": 2357,
      "à¥Ģà¤ı": 2358,
      "Ġà¤¬à¤ļ": 2359,
      "Ġà°ħà°Ń": 2360,
      "Ġà°µà°¸": 2361,
      "Ġtu": 2362,
      "à¥ģà¤¸": 2363,
      "Ġother": 2364,
      "ĠÐ·Ð°Ñģ": 2365,
      "ĠÐ´Ñĥ": 2366,
      "à¤¾à¤ģ": 2367,
      "ĠÑĨÐ¸": 2368,
      "Ð¼Ð¾ÑĤ": 2369,
      "Ġinst": 2370,
      "Ġà¤¤à¤°à¤¹": 2371,
      "wn": 2372,
      "à±įà°°à°¸": 2373,
      "Ġà¤Ĩà¤°": 2374,
      "ista": 2375,
      "Ð»ÐµÐ½Ð¸Ðµ": 2376,
      "ÑĢÐ¸ÑĤ": 2377,
      "Ġwhen": 2378,
      "ÑĨÐ°": 2379,
      "ÑħÐ¾Ð´Ð¸Ð¼": 2380,
      "ors": 2381,
      "à±Ĥà°²": 2382,
      "à¤¾à¤¶": 2383,
      "ĠÐ·Ð°ÐºÐ¾Ð½": 2384,
      "ven": 2385,
      "Ġten": 2386,
      "ĠMar": 2387,
      "à¥¤Ċ": 2388,
      "Ġpa": 2389,
      "ĠÐ´Ð°Ð½": 2390,
      "ÑĥÐ½Ðº": 2391,
      "Ġwhat": 2392,
      "Ð¾Ð²Ð°Ð½Ð¸Ñı": 2393,
      "Ġover": 2394,
      "Ĩà°°": 2395,
      "ÐµÐ»ÐµÐ¹": 2396,
      "à¥įà¤°à¤ķ": 2397,
      "ÐµÐºÐ°": 2398,
      "ĠÐ¼Ð°Ñģ": 2399,
      "ĠÐ°Ð´": 2400,
      "à°Ĥ.": 2401,
      "à°¿à°µà°°": 2402,
      "olog": 2403,
      "Ð°Ð½Ð´": 2404,
      "ory": 2405,
      "Ġà¤īà¤¤": 2406,
      "ĠÐ¿ÑĢÐ¾ÑĨÐµÑģ": 2407,
      "Ġà¤¸à¤®à¤¯": 2408,
      "ry": 2409,
      "ÐºÐ¾Ñİ": 2410,
      "ÐºÑĢÐ°ÑĹÐ½": 2411,
      "cess": 2412,
      "cciÃ³n": 2413,
      "Ġà°ħà°°": 2414,
      "Ġà¤¸à¤¹": 2415,
      "ph": 2416,
      "à¤¿à¤§": 2417,
      "Ġwork": 2418,
      "Ð¾Ð´ÑĥÐº": 2419,
      "ĠEs": 2420,
      "ough": 2421,
      "ĠÑĢÐ¾ÐºÑĥ": 2422,
      "ĠÐ¼ÑĸÑģ": 2423,
      "à¥ĩà¤®": 2424,
      "tt": 2425,
      "ÑĥÑĩÐ¸": 2426,
      "ĠÑĥÐ´": 2427,
      "Ġmuy": 2428,
      "Ġà¤ĳ": 2429,
      "ĠÐ¾Ð±ÑĢÐ°Ð·": 2430,
      "ass": 2431,
      "ÐµÑĤÐ¸": 2432,
      "ĠÑĩÐµÐ»Ð¾Ð²": 2433,
      "jo": 2434,
      "wo": 2435,
      "Ġthan": 2436,
      "ĠÐ¿ÑĢÐ°Ð²Ð¸": 2437,
      "à¤¾à¥¤Ċ": 2438,
      "Ġà¤¸à¤Ń": 2439,
      "ĠÐ¸Ð¼Ðµ": 2440,
      "enta": 2441,
      "ciones": 2442,
      "à¤ªà¤°": 2443,
      "Ġà¤Ĩà¤¯": 2444,
      "antes": 2445,
      "000": 2446,
      "Ð²Ð¸Ð´": 2447,
      "ĠÐ¿ÑĢÐ¾Ð¸Ð·": 2448,
      "Ġà¤ħà¤²": 2449,
      "ĠÐ½ÑĥÐ¶": 2450,
      "ÑıÑħ": 2451,
      "ÑİÑĤÑĮÑģÑı": 2452,
      "ict": 2453,
      "dad": 2454,
      "--": 2455,
      "Ġcam": 2456,
      "Ð¾ÑĢÐ¾Ð²": 2457,
      "mit": 2458,
      "Ð»ÐµÐ´": 2459,
      "ga": 2460,
      "ĠtambiÃ©n": 2461,
      "ĠÐ¢Ð°Ðº": 2462,
      "Ġprop": 2463,
      "Ġmi": 2464,
      "ÑĥÐ²Ð°": 2465,
      "ĠÑįÑĤÐ¾Ð¼": 2466,
      "ino": 2467,
      "aron": 2468,
      "Ġif": 2469,
      "ĠÑĤÐ¾Ð¼Ñĥ": 2470,
      "Ġits": 2471,
      "ÐµÐ½Ð¸ÐµÐ¼": 2472,
      "ft": 2473,
      "ĠÑģÐ»ÐµÐ´": 2474,
      "ĠÐ»ÑİÐ´Ð¸": 2475,
      "pro": 2476,
      "ĠÐ½ÐµÐ´": 2477,
      "à¤Ĥà¤§": 2478,
      "Ġtrabaj": 2479,
      "ĠÑĥÑģ": 2480,
      "ÃŃs": 2481,
      "Ġint": 2482,
      "Ġà¤Ĺà¤ı": 2483,
      "Ð²Ð°Ð»Ð¸": 2484,
      "à±įà°Łà°°": 2485,
      "Ð¼Ñĭ": 2486,
      "ĠÐ±ÑĭÑĤÑĮ": 2487,
      "Ð²Ð°ÑĢ": 2488,
      "à±ĥà°·": 2489,
      "idades": 2490,
      "Ġcap": 2491,
      "ĠÐ±Ð°": 2492,
      "à°ªà°¡": 2493,
      "irect": 2494,
      "Ð¼Ð¾Ð²": 2495,
      "Ð¿Ð¾Ð»": 2496,
      "199": 2497,
      "ÑĩÑĸ": 2498,
      "ÑĥÑİÑĤÑĮ": 2499,
      "à°¾à°²à°ķ": 2500,
      "ÑĢÐ°ÑĤÐ¸": 2501,
      "Ð¿Ñĥ": 2502,
      "Ð»Ð¸Ñĩ": 2503,
      "ĠestÃ¡": 2504,
      "ĠÐ¼Ð¾Ð¶Ð½Ð°": 2505,
      "à¥įà¤¶": 2506,
      "reat": 2507,
      "ĠÑģÐ¸": 2508,
      "ÑĥÐµÑĤ": 2509,
      "ĠÐ·Ð±": 2510,
      "ĠHe": 2511,
      "ĠÑĢÐµÐº": 2512,
      "Ġnuev": 2513,
      "à±ģĊ": 2514,
      "Ġmej": 2515,
      "ÑĨÑĸÑİ": 2516,
      "ren": 2517,
      "iendo": 2518,
      "ÑİÑĩÐ¸": 2519,
      "ana": 2520,
      "ivo": 2521,
      "ĠÐ½Ð¸Ñħ": 2522,
      "ÃŃas": 2523,
      "ĠÐ³Ð¾Ð´Ð°": 2524,
      "Ð¾Ð½Ñĥ": 2525,
      "ĠÐ¿ÑĢÐ¾Ð´": 2526,
      "Ġà¤¬à¤¢": 2527,
      "ĠÐ°Ð»Ðµ": 2528,
      "Ð½Ð¸ÐºÑĸÐ²": 2529,
      "los": 2530,
      "Ġra": 2531,
      "ĠÐ¿ÑĢÐ¾Ð±Ð»ÐµÐ¼": 2532,
      "ĠÑģÐ»ÑĥÑĩÐ°": 2533,
      "ĠÐ¨": 2534,
      "Ġdur": 2535,
      "à¥ĭà¤¸": 2536,
      "ional": 2537,
      "ĠÐ´ÐµÑĤ": 2538,
      "ĠDe": 2539,
      "ÑĢÐµÐ½": 2540,
      "à±ĩà°·à°¨": 2541,
      "Ġpuede": 2542,
      "à±Ģà°¤": 2543,
      "à¥įà¤Ľ": 2544,
      "Th": 2545,
      "à¥Ģà¤²": 2546,
      "Ġimport": 2547,
      "ÑħÐ¾Ð²": 2548,
      "ĠÐ¾ÑĢÐ³Ð°Ð½": 2549,
      "ĠÑĢÐµÐ·ÑĥÐ»ÑĮ": 2550,
      "Ð¾ÑĪ": 2551,
      "Ġmin": 2552,
      "à°¬à°¡": 2553,
      "Ġà¤¬à¤¡": 2554,
      "ĠÐ²ÑĸÐ´Ð¿Ð¾Ð²ÑĸÐ´": 2555,
      "Ġà¤ħà¤Ń": 2556,
      "ild": 2557,
      "Ġà°®à°¹": 2558,
      "Ð¸Ð²Ð°": 2559,
      "à°¾à°ļ": 2560,
      "itu": 2561,
      "Ð¾Ð²Ð¸Ð¹": 2562,
      "à¥ĩ,": 2563,
      "ĠÐ²ÑĸÐ½": 2564,
      "Ġart": 2565,
      "°ĩ": 2566,
      "à°ĩ": 2567,
      "ĠÐ²ÐµÐ»Ð¸": 2568,
      "ĠÐ·Ð²": 2569,
      "cal": 2570,
      "Ð°Ð½ÑĮ": 2571,
      "à°¿à°ķà°²": 2572,
      "ÑģÐ¾Ðº": 2573,
      "ĠÐ¼ÐµÐ´": 2574,
      "à°®à°¨": 2575,
      "ĠÐ¾ÑĢÐ³Ð°Ð½Ð¸": 2576,
      ".com": 2577,
      "Ġà¤¹à¤°": 2578,
      "Ġmod": 2579,
      "amil": 2580,
      "ĠWe": 2581,
      "Ġfirst": 2582,
      "ĠÐ²Ð°Ð¶": 2583,
      "ÑĥÐº": 2584,
      "ĠÐºÐ¾Ð¶": 2585,
      "ĠAr": 2586,
      "à±Ĩà°¦": 2587,
      "à¤¿à¤·": 2588,
      "Ġà°ħà°ª": 2589,
      "ĠÐ´Ð¾Ñģ": 2590,
      "idos": 2591,
      "atur": 2592,
      "Ġproduct": 2593,
      "Ġprov": 2594,
      "ople": 2595,
      "ÑĶÑİ": 2596,
      "ata": 2597,
      "ÑĨÐ¸Ñİ": 2598,
      "Ð»Ð¾Ð²": 2599,
      "ÐµÐ½Ð½Ð¾": 2600,
      "Ġinto": 2601,
      "-Ð¿": 2602,
      "ĠÑīÐ¾Ð±": 2603,
      "ĠÐ½ÐµÐ¾Ð±ÑħÐ¾Ð´Ð¸Ð¼": 2604,
      "Ġà°İà°²": 2605,
      "ĠÐ¾Ð½Ð¸": 2606,
      "ĠÐµÑģÑĤÑĮ": 2607,
      "gram": 2608,
      "ĠÐ´Ñĸ": 2609,
      "ĠÐ·Ð°Ñħ": 2610,
      "ÑĥÐ»Ñı": 2611,
      "ÐµÐ¼Ñĥ": 2612,
      "à±Īà°°": 2613,
      "Ġfue": 2614,
      "à¥Ģà¤ļ": 2615,
      "Ġtrans": 2616,
      "ÐµÐ»Ðµ": 2617,
      "Ġà°Ĩà°®": 2618,
      "à¤µà¤°": 2619,
      "Ġà¤¦à¤°": 2620,
      "ĠÐ½Ð°Ñĩ": 2621,
      "ĠÐ±ÑĭÐ»Ð¾": 2622,
      "Ġform": 2623,
      "ÑĪÐ¸Ð¹": 2624,
      "ÐºÐ°Ð·Ð°": 2625,
      "ĠÐ¿ÑĢÐ¾Ð´ÑĥÐº": 2626,
      "Ġà°īà°¦": 2627,
      "Ð³Ð¾Ð²": 2628,
      "ÑĢÐ°Ð²Ð¸": 2629,
      "ĠÐ¸Ð½ÑĤÐµÑĢ": 2630,
      "à°¾à°°à°¨": 2631,
      "Ð¾Ð²Ð°ÑĤÑĮ": 2632,
      "ÐºÐ»Ð°Ð´": 2633,
      "à±įà°µà°°": 2634,
      "ÐºÑģÐ¿": 2635,
      "ÑĸÐ½Ð½Ñı": 2636,
      "ĠÑĤÑĢÐ¸": 2637,
      "arios": 2638,
      "ĠPro": 2639,
      "ĠÐ¿Ð¾Ð±": 2640,
      "Ð½ÐµÑĢ": 2641,
      "ates": 2642,
      "ĠÐ´Ð¾Ð¿Ð¾Ð¼": 2643,
      "40": 2644,
      "ĠÐ¿Ð¸": 2645,
      "Ġdef": 2646,
      "rol": 2647,
      "oci": 2648,
      "ĠÑģÐ°Ð¹": 2649,
      "ÑģÑĮÐºÐ¸Ð¹": 2650,
      "ĠÐ²ÑģÑĸ": 2651,
      "ÐºÐ»Ñİ": 2652,
      "ÑĩÐ¸Ð½Ð°": 2653,
      "ang": 2654,
      "Ð³Ð¾Ð´": 2655,
      ".,": 2656,
      "ĠÐłÐ¾ÑģÑģÐ¸": 2657,
      "à¥ĩà¤ķà¤°": 2658,
      "ĠAs": 2659,
      "ÑĦÑĸ": 2660,
      "Ġotr": 2661,
      "Ð³Ð¾ÑĢ": 2662,
      "Ð²ÐµÐ´": 2663,
      "ÑĸÑĪ": 2664,
      "ĠÐ½Ð°Ð·": 2665,
      "ĠÐ·Ð½Ð°Ñĩ": 2666,
      "very": 2667,
      "Ġpo": 2668,
      "ĠÐ¾Ð±ÑĬ": 2669,
      "Ġà°ļà°°": 2670,
      "Ġhay": 2671,
      "Ġsp": 2672,
      "ĠÑĩÐ¸": 2673,
      "ÑģÐºÐ¸Ð¹": 2674,
      "Ġdi": 2675,
      "à±ĭà°µà°¡": 2676,
      "Ð¨": 2677,
      "Ġgener": 2678,
      "Ġà¤ķà¤Ī": 2679,
      "ning": 2680,
      "à¥ĥà¤¤": 2681,
      "ex": 2682,
      "ĠÐ´Ð¾ÑĢ": 2683,
      "à±Īà°²": 2684,
      "Ġexper": 2685,
      "Ġà¤Ĩà¤ľ": 2686,
      "Ð³Ð¾ÑĤÐ¾Ð²": 2687,
      "ĠWh": 2688,
      "ĠÐ±Ð¾Ð»ÐµÐµ": 2689,
      "ĠÐ¾ÑĩÐµÐ½ÑĮ": 2690,
      "à°Łà°¨": 2691,
      "ena": 2692,
      "car": 2693,
      "ene": 2694,
      "Ġà°ħà°ķ": 2695,
      "Ġcal": 2696,
      "à¥įà¤£": 2697,
      "à¥Īà¤¨": 2698,
      "ĠÐµÐµ": 2699,
      "Ð¾Ð»Ð¾Ñģ": 2700,
      "ĠÑĹÑĹ": 2701,
      "ĠÐ¿Ð°ÑĢ": 2702,
      "Â«": 2703,
      "à±Ģà°ľ": 2704,
      "22": 2705,
      "ĠÑĪÐº": 2706,
      "à±Ģà°¦": 2707,
      "ĠÐºÐ°ÑĢ": 2708,
      "Ð»Ð¾Ð¶": 2709,
      "ĠÐ²Ð¸ÐºÐ¾ÑĢÐ¸ÑģÑĤ": 2710,
      "ĠÑĢÐ°ÑģÑģ": 2711,
      "ÐµÐ»Ñı": 2712,
      "Ġâ": 2713,
      "à¤Ĥà¤ľ": 2714,
      "âĢĿ,": 2715,
      "à¥Ĥà¤¨": 2716,
      "Ð»Ð¸Ð·": 2717,
      "Ġant": 2718,
      "Ġmen": 2719,
      "ĠÐ¼Ð¾Ð¶Ðµ": 2720,
      "à¤¾à¤·": 2721,
      "Ã±o": 2722,
      "ÑĨÑĮ": 2723,
      "ĠÐ²Ð»Ð°": 2724,
      "ÑīÐµÐ½": 2725,
      "ĠÑĤÐ¾Ð¼": 2726,
      "ĠaÃ±os": 2727,
      "Ġmon": 2728,
      "Ġà°ĸ": 2729,
      "tern": 2730,
      "Ġsub": 2731,
      "ĠÑĥÐºÑĢÐ°ÑĹÐ½": 2732,
      "Ġà°ªà°¡": 2733,
      "Ġ$": 2734,
      "In": 2735,
      "tain": 2736,
      "Ġbus": 2737,
      "ĠÐ¼Ð½": 2738,
      "ĠÐ°Ð²ÑĤÐ¾Ð¼": 2739,
      "à±įà°°à°ľ": 2740,
      "Ġti": 2741,
      "ĠÑıÐºÐ¸Ð¹": 2742,
      "amiento": 2743,
      "ĠÐ¿ÑĢÐ¾Ð³ÑĢÐ°": 2744,
      "ĠÐ²Ð¾Ð·Ð¼Ð¾Ð¶": 2745,
      "Â».Ċ": 2746,
      "à¥Ģà¤Ł": 2747,
      "Ġvis": 2748,
      "ĠÑĩÐµÐ¼": 2749,
      "ÑĢÐµÑĤ": 2750,
      "ĠÐ²Ð¸Ð¿": 2751,
      "pecial": 2752,
      "ÐºÐ¾Ð½Ð¾Ð¼": 2753,
      "izar": 2754,
      "à±ĥà°¤": 2755,
      "Ġni": 2756,
      "ĠÑģÑĤÐ°": 2757,
      "Ġca": 2758,
      "ues": 2759,
      "ĠÐ¸Ð¼": 2760,
      "ĠÐ±ÑĥÐ»Ð¾": 2761,
      "ÑĸÑģÐ»Ñı": 2762,
      "à¤¾à¤°à¤£": 2763,
      "Ġsup": 2764,
      "à±ĩà°¯à°¡": 2765,
      "Ġdesde": 2766,
      "ĠÑįÑĤÐ¸": 2767,
      "ĠÐ³Ð¾Ð²Ð¾ÑĢ": 2768,
      "à±ĩà°ľ": 2769,
      "Ð½ÐµÐ½Ð½Ñı": 2770,
      "à±Ĥà°¨": 2771,
      "Ġà°īà°ª": 2772,
      "à±ĭà°¦": 2773,
      "ÃŃt": 2774,
      "ert": 2775,
      "Ġà°¤à°®": 2776,
      "ĠÐ´Ð¾ÐºÑĥÐ¼": 2777,
      "ĠÐ½Ñĸ": 2778,
      "à¥ĩà¤¦": 2779,
      "à±įà°¯à°®": 2780,
      "\"Ċ": 2781,
      "fr": 2782,
      "ĠÑĢÐµÐ·ÑĥÐ»ÑĮÑĤÐ°ÑĤ": 2783,
      "Ġcr": 2784,
      "à±ģà°ļ": 2785,
      "ano": 2786,
      "ÑĨÑİ": 2787,
      "ĠÐ¿Ð¾ÑģÐ»Ðµ": 2788,
      "ĠÑģÐ¿Ð¾ÑģÐ¾Ð±": 2789,
      "Ġpeople": 2790,
      "iew": 2791,
      "ÑģÐ¸Ð¼": 2792,
      "Ġdem": 2793,
      "à¥ĭà¤ľà¤¨": 2794,
      "ÐºÐ¸Ð¼Ð¸": 2795,
      "rough": 2796,
      "ĠÐ»ÐµÑĤ": 2797,
      "Ġà¤ĵ": 2798,
      "Ð¾ÑĢÑĤ": 2799,
      "à¥ģà¤Ŀ": 2800,
      "ÑģÑĮÐºÐ¸Ñħ": 2801,
      "-ÑĤÐ¾": 2802,
      "°İ": 2803,
      "à°İ": 2804,
      "ĠÐ´Ð¾Ð»Ð¶": 2805,
      "Ð´Ð¶": 2806,
      "Ġprof": 2807,
      "ĠÑģÐ²Ð¾ÑĹ": 2808,
      "Ð¾Ð½Ð°Ð»ÑĮ": 2809,
      "à±ģà°¬": 2810,
      "Ð¾Ð³Ð°": 2811,
      "ÐµÑĢÐµ": 2812,
      "ĠNew": 2813,
      "à°Ĥà°¸": 2814,
      "ĠÐ´ÐµÐ¹": 2815,
      "Ð»ÐµÐºÑģ": 2816,
      "Ġcuando": 2817,
      "ĠÑįÑĤÐ¾Ð³Ð¾": 2818,
      "ÑĢÑĸÐ±": 2819,
      "Ġà°ķà°°": 2820,
      "Ð¼ÐµÑĤ": 2821,
      "Ġhel": 2822,
      "ace": 2823,
      "à¥ĭà¤ª": 2824,
      "à¥įà¤¤à¤°": 2825,
      "ĠÐ´ÑĢÑĥÐ³Ð¸": 2826,
      "à±ĩ,": 2827,
      "ĠÐ¿ÐµÑĢÐ²": 2828,
      "Ġdist": 2829,
      "cur": 2830,
      "ĠÐ¾Ð´Ð¸Ð½": 2831,
      "Ġcual": 2832,
      "ĠÑĢÐ°ÑģÐ¿": 2833,
      "ÑģÑĤÑĢÐ¾": 2834,
      "à¥Ģà¤¦": 2835,
      "ĠÑĤÐµÐ¿": 2836,
      "Ġà°ªà°¦": 2837,
      "ĠÐ²Ð°Ð¼": 2838,
      "Ġhow": 2839,
      "ÐµÑģÑĤÐ²Ð¾": 2840,
      "iel": 2841,
      "Ð´ÐµÐ»": 2842,
      "ĠÐ¶Ð¸Ð·": 2843,
      "ik": 2844,
      "Ġà¤ħà¤ļ": 2845,
      "Ð¦": 2846,
      "Ġneces": 2847,
      "ÐŁÑĢÐ¸": 2848,
      "à±įà°¯à°µ": 2849,
      "Ġplay": 2850,
      "ÑĢÐ¾ÑģÑĤ": 2851,
      "à¥ĩà¤¹": 2852,
      "Ġpub": 2853,
      "ĠÐ¸Ñģ": 2854,
      "Ð½ÐµÐ½": 2855,
      "Ð¸ÑĢ": 2856,
      "low": 2857,
      "cion": 2858,
      "ÑģÑĤÑĸ": 2859,
      "ĠAnd": 2860,
      "ds": 2861,
      "ÑĤÐ¾ÑĢÐ°": 2862,
      "ĠÑģÐ¾Ð·": 2863,
      "Ð°ÑĢÐ°Ðº": 2864,
      "Ð¥": 2865,
      "ĠÐ¿ÑĢÐ¾ÐµÐº": 2866,
      "Ġfun": 2867,
      "Ġà°ĩà°ķ": 2868,
      "ĠÐ½ÐµÐ¿": 2869,
      "br": 2870,
      "Ġfo": 2871,
      "Ġdos": 2872,
      "ÑıÑģ": 2873,
      "Ð»Ð¸Ð²Ð¾": 2874,
      "ĠÐ¿ÑĢÐ¾ÑģÑĤÐ¾": 2875,
      "arÃ¡": 2876,
      "Ġgu": 2877,
      "iciÃ³n": 2878,
      "ÑĢÐ¾Ð·": 2879,
      "ĠÐ¼ÐµÐ¶": 2880,
      "ÑĪÐµÐ½Ð¸Ñı": 2881,
      "à¤¿à¤Ń": 2882,
      "we": 2883,
      "¤ģ": 2884,
      "Ð°ÑĤÐ°": 2885,
      "à¤ģ": 2886,
      "à¤¾à¤¡": 2887,
      "ĠÐ¿ÑĢÐ¾ÑĤ": 2888,
      "Ġonly": 2889,
      "ĠX": 2890,
      "ĠÐ·Ð°Ð³": 2891,
      "21": 2892,
      "à°¾à°°à°¤": 2893,
      "Ġav": 2894,
      "Ġà°ªà°Ł": 2895,
      "ĠÐ±ÑĥÐ´Ðµ": 2896,
      "à°°à°£": 2897,
      "Ġà¤ľà¤¨": 2898,
      "orm": 2899,
      "paÃ±": 2900,
      "arse": 2901,
      "âĢĻt": 2902,
      "Ð½ÑĥÑĤ": 2903,
      "Ġseg": 2904,
      "uro": 2905,
      "à¥īà¤²": 2906,
      "ital": 2907,
      "ÑİÑī": 2908,
      "ĠÑİ": 2909,
      "ĠÑĦÐ°Ðº": 2910,
      "23": 2911,
      "Ð²Ðµ": 2912,
      "Ġà¤ľà¤°": 2913,
      "ÐµÑģÑĤÐ²Ð°": 2914,
      "à¥Īà¤ķ": 2915,
      "Ð½Ð¸ÐºÐ¾Ð²": 2916,
      "anto": 2917,
      "Ġhacer": 2918,
      "Ġ/": 2919,
      "à±įà°¯à°¤": 2920,
      "Ð¾Ð¼ÐµÐ½": 2921,
      "Ġtodos": 2922,
      "ĠÐ´ÑĢÑĥÐ³": 2923,
      "cis": 2924,
      "Ð±Ñĭ": 2925,
      "Ð½ÐµÐµ": 2926,
      "ĠÐ¼Ð°Ð»": 2927,
      "...Ċ": 2928,
      "ÐµÑĢÐ¶Ð°Ð²": 2929,
      "ĠÐºÐ¾Ð³Ð´Ð°": 2930,
      "Ġhan": 2931,
      "Ġknow": 2932,
      "à¥Īà¤Ĥà¥¤Ċ": 2933,
      "ĠÐ»ÐµÐ³": 2934,
      "ĠÑĤÑĢÐ°": 2935,
      "Ġshe": 2936,
      "à±Ģ,": 2937,
      "à°¾à°ĸ": 2938,
      "ĠÐŀÐ´": 2939,
      "Ġconf": 2940,
      "ĠÑĢÑĸÐ·": 2941,
      "Ġtwo": 2942,
      "ĠÑģÑĩ": 2943,
      "Ð¼ÐµÐ½ÑĤ": 2944,
      "Ġtiene": 2945,
      "ĠÃ©": 2946,
      "iones": 2947,
      "Ð¾Ð½Ð¸": 2948,
      "ĠÑĨÐµÐ½ÑĤ": 2949,
      "ĠLe": 2950,
      "cid": 2951,
      "ĠÑģÐ¿ÐµÑĨÐ¸": 2952,
      "à±ĭà°·": 2953,
      "Ġfamil": 2954,
      "Ġà¤Ĩà¤¤": 2955,
      "ĠÑĢÐ°Ð¹": 2956,
      "âĢĿĊ": 2957,
      "ÑĢÐµÐ±": 2958,
      "Ġà°²à°ķ": 2959,
      "ÑĸÐ´Ð¾Ð¼": 2960,
      "ÑĤÑĥÑĢ": 2961,
      "ÐµÑĢÐ¶Ð°": 2962,
      "Ð°ÑĪ": 2963,
      "Ġneed": 2964,
      "¤Ľ": 2965,
      "à¤Ľ": 2966,
      "à±Īà°¤": 2967,
      "à¤¾à¤£": 2968,
      "à¥ģà¤µ": 2969,
      "ĠÐ±Ð°Ð½": 2970,
      "ÑĤÐ¸Ð½": 2971,
      "ÑģÑĤÑİ": 2972,
      "ress": 2973,
      "60": 2974,
      "fect": 2975,
      "Ð²Ð°ÑĤÑĮ": 2976,
      "Ġbr": 2977,
      "à±įà°Ń": 2978,
      "Ġà¤Ĩà¤µ": 2979,
      "ww": 2980,
      "à±įà°¨à°Ł": 2981,
      "ĠÐ¿Ð¾Ð»Ñĸ": 2982,
      "ĠÐ¿ÑĢÐ¾ÑĦ": 2983,
      "à¤¾à¤ī": 2984,
      "pp": 2985,
      "à¥Īà¤Ĥ.": 2986,
      "Ġsim": 2987,
      "à¥ģà¤Ī": 2988,
      "Ġesc": 2989,
      "à°¸à°°": 2990,
      "jer": 2991,
      "Ġcomple": 2992,
      "Ð»ÐµÑĤ": 2993,
      "Ġà¤ĺà¤°": 2994,
      "ĠÑģÐµÐ±Ðµ": 2995,
      "Ð½ÑĸÐ²": 2996,
      "ĠÐ¿ÑĢÐ¾Ð¿": 2997,
      "Ġback": 2998,
      "ĠÐĿÐ¾": 2999,
      "hing": 3000,
      "Ġequ": 3001,
      "à±įà°°à°ª": 3002,
      "Ġà¤ªà¤¡": 3003,
      "ÑĨÐµÐ²": 3004,
      "Ġà°ħà°¡": 3005,
      "ational": 3006,
      "ĠÐ¾Ð½Ð°": 3007,
      "ĠÐŁÐ¾": 3008,
      "ĠÐ¼Ð°Ð¹": 3009,
      "à¤¾à¤ıà¤Ĺ": 3010,
      "ÑģÐ¾Ð²": 3011,
      "Ġcent": 3012,
      "day": 3013,
      "ĠÐµÑīÐµ": 3014,
      "ĠÐ»ÑİÐ´ÐµÐ¹": 3015,
      "à¥Ĥà¤Ĥ": 3016,
      "ĠÐ±ÑĭÐ»": 3017,
      "Ġins": 3018,
      "Ð²Ñĭ": 3019,
      "ÑĢÐ¾Ð²Ð°Ð½": 3020,
      "ath": 3021,
      "Ð¾Ñī": 3022,
      "à°Ĥà°Ń": 3023,
      "ÑĥÑģÑĤ": 3024,
      "ĠÐºÐ¾ÑĤÐ¾ÑĢÑĭÐ¹": 3025,
      "Ġà¤®à¤¨": 3026,
      "ĠÐ¾ÑĤÐ½Ð¾": 3027,
      "à¥Ģà¤¬": 3028,
      "ement": 3029,
      "ĠÐ¸Ð³": 3030,
      "Ġà¤Ĩà¤¦": 3031,
      "uel": 3032,
      "ÑĮÑİ": 3033,
      "Ġparte": 3034,
      "Ġhasta": 3035,
      "Ð°Ð³Ð°ÑĤ": 3036,
      "ÃŃn": 3037,
      "Ġbet": 3038,
      "Ð½Ð¸Ñĩ": 3039,
      "Ð¾ÑģÐº": 3040,
      "Ġgro": 3041,
      "à¥įà¤Łà¤°": 3042,
      "Ð¾Ð¿ÑĢÐ¾Ñģ": 3043,
      "ÐĹÐ°": 3044,
      "Ð¾ÑĤÐ°": 3045,
      "Ð»Ð°ÑģÑĮ": 3046,
      "Ġlib": 3047,
      "Ð¼ÑĸÐ½": 3048,
      "à±įà°¯à°²": 3049,
      "Ġà°®à°§": 3050,
      "ĠÐ³Ð¾Ð»Ð¾Ð²": 3051,
      "Ġdirect": 3052,
      "Ð¾ÑģÑĥÐ´": 3053,
      "Ġlook": 3054,
      "ĠÐºÐ¾Ð»Ð¸": 3055,
      "Ġconst": 3056,
      "ĠÐĶÐ»Ñı": 3057,
      "à±Ĭà°²": 3058,
      "Ð¼Ð°ÑĤ": 3059,
      "ÑĪÑĥ": 3060,
      "ÑıÐ³": 3061,
      "Ð°ÑĢÐ°ÐºÑĤÐµÑĢ": 3062,
      "à¤¾à¤®à¤²": 3063,
      "ÐµÐ»ÐµÐ½": 3064,
      "Ġval": 3065,
      "à±ĩà°¡": 3066,
      "urn": 3067,
      "ĠÐ·ÐµÐ¼": 3068,
      "po": 3069,
      "ident": 3070,
      "ĠÐ³ÑĢÐ¾Ð¼": 3071,
      "ĠÐ±ÑĥÑĤÐ¸": 3072,
      "ĠÐ³Ð¾Ð´": 3073,
      "ful": 3074,
      "à±ģà°£": 3075,
      "Ġtiemp": 3076,
      "Ġmejor": 3077,
      "Ġalgun": 3078,
      "ÑĢÐ°Ð±Ð¾ÑĤ": 3079,
      "ĠQ": 3080,
      "iente": 3081,
      "xt": 3082,
      "à¤¾à¤Ł": 3083,
      "ÑıÑĤÐµÐ»ÑĮ": 3084,
      "ĠÑĨÑĮÐ¾Ð³Ð¾": 3085,
      "Ġà¤¸à¤¬à¤¸": 3086,
      "ous": 3087,
      "lam": 3088,
      "ĠÑīÐµ": 3089,
      "Ð¸Ð¸": 3090,
      "Ġprogram": 3091,
      "°Ī": 3092,
      "à°Ī": 3093,
      "ten": 3094,
      "à±Ģà°İ": 3095,
      "ÑģÑĮÐºÐ°": 3096,
      "à±įà°²à°¨": 3097,
      "¤Ŀ": 3098,
      "à¤Ŀ": 3099,
      "à¤¾à¤¨à¤ķ": 3100,
      "ER": 3101,
      "à¥ĭà¤¶": 3102,
      "ating": 3103,
      "Ð¸Ð¹": 3104,
      "ĠÐºÑĸÐ»ÑĮ": 3105,
      "ÐµÑģÑı": 3106,
      "ipo": 3107,
      "ĠAd": 3108,
      "Ġhim": 3109,
      "Ġdonde": 3110,
      "Ġà°¨à°Ł": 3111,
      "ĠÐ¸ÑģÑĤ": 3112,
      "Ð°Ð±": 3113,
      "ĠÐ¿Ð¾ÐºÐ°Ð·": 3114,
      "à¤Łà¤¨": 3115,
      "ise": 3116,
      "à°¿à°¨à°Ł": 3117,
      "Ġmost": 3118,
      "Ð²Ð¸ÑĤ": 3119,
      "à±Ĥà°Ł": 3120,
      "Ġà°Ĳ": 3121,
      "ĠÐ´ÐµÐ»Ð°": 3122,
      "ÑıÐ¼Ð¸": 3123,
      "à¥Ĥà¤¸à¤°": 3124,
      "28": 3125,
      "à¤ĩà¤¸": 3126,
      "ĠÐ²Ð°Ñģ": 3127,
      "à¥Ģ.": 3128,
      "ĠÐ½Ð°ÑĢÐ¾Ð´": 3129,
      "ĠÐĿÐµ": 3130,
      "Ġà°¸à°¹": 3131,
      "ĠÑĩÐ°ÑģÑĤÐ¸": 3132,
      "ÑģÐºÐ¸Ñħ": 3133,
      "Ġafter": 3134,
      "ÑĩÐ¸Ð½": 3135,
      "Ġsee": 3136,
      "à¤¾à¤ĩà¤¨": 3137,
      "ĠÐºÐ°Ñĩ": 3138,
      "ÑĢÐ°Ð¶": 3139,
      "ĠÐ¿ÑĢÐ¸Ð¹": 3140,
      "ito": 3141,
      "adores": 3142,
      "itar": 3143,
      "Ġà°¦à°°": 3144,
      "Ð¾Ð²Ñĸ": 3145,
      "Ġexp": 3146,
      "cha": 3147,
      "à¥ĩà¤¬": 3148,
      "ĠÐºÐ°Ð¶Ð´": 3149,
      "ĠNo": 3150,
      "ĠÑĥÐ¼": 3151,
      "ĠÐ²Ð¾Ð½Ð¸": 3152,
      "Ġà°¸à°®à°¯": 3153,
      "Ð¿Ð¸Ñģ": 3154,
      "ĠÑģÑĤÐ¾": 3155,
      "ĠÐ²Ð¶Ðµ": 3156,
      "à¤¿à¤ķà¤²": 3157,
      "ÑĨÐµÐ½": 3158,
      "oth": 3159,
      "ton": 3160,
      "Ġinclud": 3161,
      "à±Ĩà°¬": 3162,
      "Ġmom": 3163,
      "ĠÑĤÑĭ": 3164,
      "Ġà°ħà°¸": 3165,
      "ĠSh": 3166,
      "Ġ[": 3167,
      "ĠÐ¿Ð¾Ð²ÐµÑĢ": 3168,
      "ĠÐ·Ð°Ð»": 3169,
      "à°ļà°¨": 3170,
      "ĠÑĥÐ¿ÑĢÐ°Ð²": 3171,
      "erg": 3172,
      "ĠÐĴÑĭ": 3173,
      "à¤°à¤£": 3174,
      "ÑĩÐµÐ½Ð½Ñı": 3175,
      "ĠCo": 3176,
      "ĠÐ¿ÑĢÐ°Ðº": 3177,
      "¤ī": 3178,
      "à¤ī": 3179,
      "27": 3180,
      "Ġmake": 3181,
      "ĠÐŃÑĤÐ¾": 3182,
      "ĠÐ¿ÑĢÐ¾Ð²ÐµÐ´": 3183,
      "ĠÐ±Ð¾Ð»ÑĮÑĪ": 3184,
      "Ġi": 3185,
      "ĠÑıÐ²Ð»ÑıÐµÑĤÑģÑı": 3186,
      "ÐºÐ°ÑĢ": 3187,
      "ĠÐ¼Ð¾Ð´": 3188,
      "Ð½Ð¾Ð²Ð°": 3189,
      "Ġmun": 3190,
      "Ġproble": 3191,
      "Ġmet": 3192,
      "à¥Ģà¤¸": 3193,
      "ÑģÑĭ": 3194,
      "ÑĶÐ½": 3195,
      "à±į.": 3196,
      "Ġà°¤à°ª": 3197,
      "ĠÐ¼Ð°ÑĶ": 3198,
      "Ġhist": 3199,
      "Ġcada": 3200,
      "ÑģÑĥÑĤ": 3201,
      "ĠÑĤÐ¾ÑĢ": 3202,
      "Ġph": 3203,
      "ĠÑģÐµÐº": 3204,
      "Ð»ÑģÑı": 3205,
      "à±įĊ": 3206,
      "ÐµÐ»Ð¾": 3207,
      "ider": 3208,
      "Ġcould": 3209,
      "ĠÐºÐ¾Ð¼Ð¿Ð°": 3210,
      "26": 3211,
      "Ġvez": 3212,
      "ĠÐĦ": 3213,
      "à¥įà¤Ĺ": 3214,
      "à±įà°²à°²": 3215,
      "Ġwant": 3216,
      "Ġà¤Ńà¤°": 3217,
      "ÑģÑĤÑĢÑĥÐº": 3218,
      "ĠÐ²ÐµÐ´": 3219,
      "Ġevery": 3220,
      "ts": 3221,
      "ting": 3222,
      "Ġorgan": 3223,
      "Ġbien": 3224,
      "à¥įà¤¯à¤®": 3225,
      "ĠÑĢÑĥÐ±": 3226,
      "à¥ĩà¤¯": 3227,
      "ĠÑħÐ¾ÑĢÐ¾": 3228,
      "âĢĻÑı": 3229,
      "à±ģ..": 3230,
      "à¥ĩà¤¶à¤¨": 3231,
      "ĠÐ¼Ð¾Ð³ÑĥÑĤ": 3232,
      "ĠÐ½Ð¾ÑĢ": 3233,
      "ife": 3234,
      "Ð¸Ð±": 3235,
      "Ġthrough": 3236,
      "ĠÑĩÐ¸Ñģ": 3237,
      "ics": 3238,
      "ĠÐ²Ð¾Ð¿ÑĢÐ¾Ñģ": 3239,
      "Ð¸Ð½Ð°": 3240,
      "med": 3241,
      "Ġinf": 3242,
      "ÐºÐ¾Ðµ": 3243,
      "ember": 3244,
      "à¤¾à¤ĸ": 3245,
      "Ġimp": 3246,
      "à¥Ī.Ċ": 3247,
      "ject": 3248,
      "Ġgran": 3249,
      "Ġà°ĩà°²": 3250,
      "ĠÐ¿Ð¸ÑĤ": 3251,
      "Ġsig": 3252,
      "Ġà°Ĩà°²": 3253,
      "tal": 3254,
      "Ġà°īà°¤": 3255,
      "à¤¿à¤Ĺ": 3256,
      "Ġà°ĩà°ļ": 3257,
      "icip": 3258,
      "à°ķà°°": 3259,
      "Ġdid": 3260,
      "ĠÐ½ÑĥÐ¶Ð½Ð¾": 3261,
      "ĠÐ¾Ð¿ÑĢÐµÐ´": 3262,
      "ices": 3263,
      "Ð²Ð°Ð»": 3264,
      "Ð¾Ð´Ñĸ": 3265,
      "Ġele": 3266,
      "iss": 3267,
      "ĠÑģÑĥÐ¼": 3268,
      "ĠÐºÑĢÑĥ": 3269,
      "Ġcontin": 3270,
      "ason": 3271,
      "à°Ĥà°ľ": 3272,
      "ato": 3273,
      "Ġresult": 3274,
      "inci": 3275,
      "ĠÑĤÑĸÐ»ÑĮÐºÐ¸": 3276,
      "ÐµÐ·Ð¿": 3277,
      "à¥įà¤°à¤µ": 3278,
      "Ġà°µà°°à°ķ": 3279,
      "Ġactiv": 3280,
      "__": 3281,
      "Ð¸ÑĤÑĥÐ°": 3282,
      "Ġà°¤à°Ĺ": 3283,
      "ĠÐ¶Ð¸Ð²": 3284,
      "à±ĩ.": 3285,
      "cept": 3286,
      "quier": 3287,
      "ket": 3288,
      "ted": 3289,
      "Ġcur": 3290,
      "ĠÐ¿Ð»Ð°Ð½": 3291,
      "ĠÐ¿Ð¾Ð³": 3292,
      "ÑįÑĤ": 3293,
      "Ġà¤ħà¤¸": 3294,
      "ĠÑĤÑĢÐ°Ð½": 3295,
      "Ġà¤¶à¤°": 3296,
      "ĠÐ´Ð°Ð¶Ðµ": 3297,
      "ÑĥÑĶÑĤÑĮÑģÑı": 3298,
      "Ġ&": 3299,
      "zo": 3300,
      "à°¿..": 3301,
      "Ð»Ð¸Ð½": 3302,
      "ps": 3303,
      "ĠÐļÐ¸": 3304,
      "ustr": 3305,
      "ĠÑĢÐ°Ð·Ð²Ð¸": 3306,
      "à±Ģà°Ĩà°°": 3307,
      "Ð°Ð²Ð»Ñı": 3308,
      "ÑĢÐ°Ñħ": 3309,
      "ÃŃan": 3310,
      "oria": 3311,
      "Ã©r": 3312,
      "Ð»Ð¸Ð²Ñĸ": 3313,
      "Ġcer": 3314,
      "Ġhum": 3315,
      "ĠÑħÐ°ÑĢÐ°ÐºÑĤÐµÑĢ": 3316,
      "ĠÐ¿ÑĢÐ¾Ð¸Ð·Ð²Ð¾Ð´": 3317,
      "à¤¼à¤¿": 3318,
      "ÑĢÐ°ÑĤ": 3319,
      "ĠÐ´Ð¾Ð³": 3320,
      "ĠÑģÐ²Ð¾Ñİ": 3321,
      "Ġuse": 3322,
      "Ð»Ð¸ÑģÑĮ": 3323,
      "duc": 3324,
      "à°µà°ļ": 3325,
      "ĠThis": 3326,
      "à¥įà¤¬": 3327,
      "als": 3328,
      "Ð»Ð¸Ð²Ð°": 3329,
      "Ġtiempo": 3330,
      "ismo": 3331,
      "à¤¤à¤°": 3332,
      "ĠÑģÐµÑĢÐµÐ´": 3333,
      "ja": 3334,
      "Ġbas": 3335,
      "ÐµÐ½Ñĭ": 3336,
      "ÑĤÐ²ÐµÑĢ": 3337,
      "à¤ľà¤°": 3338,
      "ĠÐ½ÐµÑģÐº": 3339,
      "ins": 3340,
      "Ġcomm": 3341,
      "Ġà°Ĩà°¸": 3342,
      "Ġyears": 3343,
      "ĠÐĲÐ½": 3344,
      "Ġthese": 3345,
      "Ġ|": 3346,
      "ÑīÐ¸Ñħ": 3347,
      "Ð½Ð¾ÑģÑĤÑĮÑİ": 3348,
      "ĠÑĤÐ¾Ñĩ": 3349,
      "Ġdr": 3350,
      "ĠÐķÑģÐ»Ð¸": 3351,
      "à¥ĭà¤¹": 3352,
      "Ð·Ñĭ": 3353,
      "âĢĺ": 3354,
      "ĠasÃŃ": 3355,
      "ĠÐ±ÐµÑĢ": 3356,
      "à¥Īà¤²": 3357,
      "ork": 3358,
      "ĠÑģÐ»ÑĥÐ¶": 3359,
      "ĠÐ±Ð»Ð°": 3360,
      "Ġwell": 3361,
      "Ġnow": 3362,
      "Ġporque": 3363,
      "Ġà¤ħà¤µ": 3364,
      "Ġgood": 3365,
      "à±Ģà°Ĥ": 3366,
      "ĠÑģÐ»Ð¾Ð²Ð°": 3367,
      "ÑĨÐ¸Ð¹": 3368,
      "à¥ĭà¤§": 3369,
      "Ð¾Ð²Ð¾Ð³Ð¾": 3370,
      "arn": 3371,
      "Ġvery": 3372,
      "Ġsur": 3373,
      "ĠÐĸ": 3374,
      "ĠÐºÑĥÐ»ÑĮ": 3375,
      "ÑĩÐ°Ð¹": 3376,
      "Ġrespon": 3377,
      "ern": 3378,
      "ĠÐ¯Ðº": 3379,
      "ugar": 3380,
      "ua": 3381,
      "ÐŃ": 3382,
      "Ð²ÑĢÐ¾Ð¿": 3383,
      "yst": 3384,
      "ĠÑģÑĤÐ²Ð¾ÑĢ": 3385,
      "Ð»ÐµÐ¹": 3386,
      "Ð¼ÐµÑģÑĤ": 3387,
      "ĠÑģÐµÐ¼": 3388,
      "ÐµÐ»Ð°": 3389,
      "get": 3390,
      "à¥Ĥà¤Ł": 3391,
      "ities": 3392,
      "ys": 3393,
      "ĠÐ¼ÑĸÐ¶": 3394,
      "Ġide": 3395,
      "Ġhigh": 3396,
      "ita": 3397,
      "ĠÑģÐ¸ÑĤÑĥÐ°": 3398,
      "Ġweb": 3399,
      "à±Ĭà°¡": 3400,
      "ek": 3401,
      "Ġmov": 3402,
      "ĠÐ¼Ð°ÑĤÐµÑĢÐ¸": 3403,
      "ES": 3404,
      "ÑĤÑĢÐ¸": 3405,
      "ÐµÑī": 3406,
      "old": 3407,
      "fore": 3408,
      "ÑĤÐ¸Ñı": 3409,
      "à¥Ĥà¤®": 3410,
      "Ð½Ð¸ÑĨÑĤ": 3411,
      "Ġsent": 3412,
      "ĠÐ²ÑĸÐ¹": 3413,
      "ĠÐ°ÐºÑĤÐ¸Ð²": 3414,
      "ĠÂ¿": 3415,
      "à°¿Ċ": 3416,
      "à±įà°°à°¦": 3417,
      "ĠÐ°Ð¿": 3418,
      "ĠÐ·Ð°Ð´": 3419,
      "Ð¾ÐºÐ°": 3420,
      "imo": 3421,
      "âĢĻÑıÐ·": 3422,
      "ĠÐ¿ÐµÑĢÐµÐ²": 3423,
      "à±įà°·à°£": 3424,
      "ĠÐ½ÐµÑĤ": 3425,
      "à±Ĭà°Ł": 3426,
      "à¤¾à¤ķà¤°": 3427,
      "abil": 3428,
      "à±Ģà°®": 3429,
      "Ġà°ĩà°µ": 3430,
      "ĠÐ·Ð´Ð¾ÑĢÐ¾Ð²": 3431,
      "Ġplan": 3432,
      "ema": 3433,
      "ĠÑıÐºÐ°": 3434,
      "ĠÑħÐ¾Ñĩ": 3435,
      "°Ĩ": 3436,
      "ÑĨÑĭ": 3437,
      "Ð¾ÑĢÐ¾Ð½": 3438,
      "Ġforma": 3439,
      "tro": 3440,
      "à°Ĩ": 3441,
      "elf": 3442,
      "ÑģÑĤÐµÑĢ": 3443,
      "ĠÐ»ÑĥÑĩ": 3444,
      "à±Īà°Ł": 3445,
      "Ð¹Ð½": 3446,
      "ĠÐ¿ÐµÑĢÐµ": 3447,
      "Ġvida": 3448,
      "ĠÐ²Ð¸Ð´Ðµ": 3449,
      "Ð²Ð°Ð½": 3450,
      "ĠÐ¾Ð¿ÐµÑĢÐ°": 3451,
      "ÑĩÐµ": 3452,
      "ÑĭÑĪ": 3453,
      "atch": 3454,
      "ĠÑĦÐ¾ÑĤ": 3455,
      "Ġpresent": 3456,
      "ĠÐºÑĥÐ¿": 3457,
      "ĠÐ´Ð¾Ð·": 3458,
      "gar": 3459,
      "à¥Ģà¤ª": 3460,
      "à¤Ĥà¤Ń": 3461,
      "à¤¬à¤°": 3462,
      "eros": 3463,
      "à¥ģà¤¡": 3464,
      "ĠÑĪÐ¸": 3465,
      "ĠÐ´ÑĸÑı": 3466,
      "ÑĢÐµÐ·": 3467,
      "ÑĸÑİ": 3468,
      "à±įà°°à°µ": 3469,
      "Ġlar": 3470,
      "Ġsign": 3471,
      "ÑģÐ»ÐµÐ´": 3472,
      "Ġà°ıà°°": 3473,
      "Ġcontr": 3474,
      "Ġrest": 3475,
      "ction": 3476,
      "à¥įà¤«": 3477,
      "à±ĭ,": 3478,
      "ward": 3479,
      "à±Īà°ª": 3480,
      "29": 3481,
      "ĠÑĥÑģÐ»": 3482,
      "Ð°Ð²Ð¸": 3483,
      "las": 3484,
      "Ġà¤ħà¤Ĺà¤°": 3485,
      "ÐµÐ½ÑĤÐ¾Ð²": 3486,
      "Ð¸ÑĤÐµÐ»ÑĮÐ½Ð¾": 3487,
      "ĠZ": 3488,
      "Ġà¤ħà¤®": 3489,
      "ĠÑĦÑĥÐ½Ðº": 3490,
      "à¤¾à¤¹à¤¤": 3491,
      "ÐµÑĤÑĥ": 3492,
      "acional": 3493,
      "ĠÐ¿Ð¾Ð²ÑĸÐ´Ð¾Ð¼": 3494,
      "Ġreci": 3495,
      "Ħĸ": 3496,
      "lt": 3497,
      "Ð¼Ð¾": 3498,
      "ĠÐºÑĥÑĢ": 3499,
      "ĠÐ¿ÑĢÐ¾ÑĦÐµÑģ": 3500,
      "izaciÃ³n": 3501,
      "me": 3502,
      "ĠÑĤÑĥ": 3503,
      "Ð¾ÑģÑĥÐ´Ð°ÑĢ": 3504,
      "ull": 3505,
      "ĠTr": 3506,
      "ĠÑĢÐ¾Ð´": 3507,
      "Ġeven": 3508,
      "Ð´ÐµÐ»Ð°": 3509,
      "à¤Ĥà¤ļ": 3510,
      "Ġfinal": 3511,
      "à¤¾à¤®à¤¨": 3512,
      "Ġtal": 3513,
      "à¥ĭà¤¦": 3514,
      "ÑĩÐ½Ð¾": 3515,
      "ĠÐ·Ð¼Ñĸ": 3516,
      "Ġstud": 3517,
      "à°¾à°®à°¨": 3518,
      "Ġsab": 3519,
      "à¥įà¤¶à¤¨": 3520,
      "Ġrev": 3521,
      "à¥įà¤¯à¤µ": 3522,
      "Ð²ÐµÑģÑĤ": 3523,
      "ÑĦÐµÑĢ": 3524,
      "Ġut": 3525,
      "imos": 3526,
      "Ð»ÑĸÐ´": 3527,
      "Ġdown": 3528,
      "Ð¾Ð¶Ð´": 3529,
      "Ġbl": 3530,
      "ĠÐ¾ÑģÑĤ": 3531,
      "ÐµÑĢÐ²": 3532,
      "Ġmill": 3533,
      "cio": 3534,
      "atos": 3535,
      "Ġuno": 3536,
      "ÑĢÐ°Ñģ": 3537,
      "ĠÐ¾ÑĤÐº": 3538,
      "tle": 3539,
      "ĠÐ¿ÑĸÑģÐ»Ñı": 3540,
      "à¥Ĥà¤¤": 3541,
      "à°¿à°³": 3542,
      "Ð¸Ð»Ð°": 3543,
      "ower": 3544,
      "Ġthen": 3545,
      "ĠÐ´ÑĥÐ¶Ðµ": 3546,
      "icio": 3547,
      "Ġà¤Ĩà¤¨": 3548,
      "ÑĥÑī": 3549,
      "à¥ĩà¤·": 3550,
      "Ð¾Ð»Ñĸ": 3551,
      "//": 3552,
      "à±Ĩà°¯": 3553,
      "ĠÐ²ÑģÐµÐ³Ð¾": 3554,
      "unto": 3555,
      "ama": 3556,
      "ĠÐ²Ð°ÑĪ": 3557,
      "ÑĢÐµÐº": 3558,
      "orn": 3559,
      "ĠÐ´Ð²Ð°": 3560,
      "ÐµÐ½Ð¸Ñħ": 3561,
      "Ð½ÑıÑĤ": 3562,
      "Ġconv": 3563,
      "Ġsom": 3564,
      "ĠdÃŃa": 3565,
      "Ġway": 3566,
      "Ġdesp": 3567,
      "ÑģÐ»Ñĥ": 3568,
      "Ġright": 3569,
      "ĠÐ¼ÐµÐ½Ñı": 3570,
      "ĠÐ¿Ð¾ÑĤÑĢÑĸÐ±": 3571,
      "à¤¾à¤²à¤¯": 3572,
      "ĠÐ¼Ð°ÑĢ": 3573,
      "Ġshould": 3574,
      "ĠÑĥÑģÐ¿": 3575,
      "ĠÑģÑĤÐ°ÑĢ": 3576,
      "ÑįÑĤÐ¾Ð¼Ñĥ": 3577,
      "à°¿à°¬": 3578,
      "Ġà°ħà°¤à°¨": 3579,
      "ĠÑģÐ²ÑıÐ·": 3580,
      "ĠÐ½Ð°ÑģÑĤ": 3581,
      "ĠÑģÐ¿ÑĢÐ°Ð²": 3582,
      "ĠÐ´ÐµÑĢÐ¶Ð°Ð²": 3583,
      "Ġà°ľà°¨": 3584,
      "ĠÐ½ÐµÐ¾Ð±ÑħÑĸÐ´": 3585,
      "ÑĦÐµÐºÑĤÐ¸Ð²": 3586,
      "Ð·Ð´": 3587,
      "à°¿à°ľà°¯": 3588,
      "-Ċ": 3589,
      "Ġbeca": 3590,
      "round": 3591,
      "emÃ¡s": 3592,
      "à±įà°·à°¨": 3593,
      "ĠÐ¿Ð¾ÑģÐ»ÐµÐ´": 3594,
      "iud": 3595,
      "à¥ģà¤¶": 3596,
      "ĠÑģÐµÐ±Ñı": 3597,
      "Ġagain": 3598,
      "inal": 3599,
      "Ġrequ": 3600,
      "line": 3601,
      "Ġpersonas": 3602,
      "ÑĥÐ²Ð°Ð»Ð¸": 3603,
      "ÃŃcul": 3604,
      "jet": 3605,
      "entos": 3606,
      "à±Ĭà°°": 3607,
      "ave": 3608,
      "ĠÐºÑĢÐ°ÑĹ": 3609,
      "istas": 3610,
      "Ġthink": 3611,
      "Ð°Ð½ÑĤ": 3612,
      "Ġmany": 3613,
      "idas": 3614,
      "Ð¾Ð»Ð°": 3615,
      "à¤¿à¤¸à¤ķ": 3616,
      "ĠÑĢÐ¾Ñģ": 3617,
      "ty": 3618,
      "ĠÐ³Ð¾Ð´Ñĥ": 3619,
      "80": 3620,
      "Ġbecause": 3621,
      "AR": 3622,
      "Ġcall": 3623,
      "Ġexperien": 3624,
      "cent": 3625,
      "cir": 3626,
      "Ð¸ÑĤÐµÐ»Ñı": 3627,
      "ÐµÐ½Ð´": 3628,
      "ĠÐºÑĢÐ¸": 3629,
      "Ġmayor": 3630,
      "ÐµÐ½Ð¾": 3631,
      "à¥įà¤ŀ": 3632,
      "az": 3633,
      "ĠÐ¼ÐµÑĢ": 3634,
      "ÐŁÑĢÐ¾": 3635,
      "ĠÑģÐºÐ°Ð·": 3636,
      "Ð²Ð¾Ð»Ñı": 3637,
      "Ġwhere": 3638,
      "à¤¼à¤¤": 3639,
      "ĠÑĸÐ½ÑĦÐ¾ÑĢÐ¼Ð°": 3640,
      "ÐºÑĥÑĢ": 3641,
      "à¤¼à¤¨": 3642,
      "iudad": 3643,
      "ĠÑıÐºÑīÐ¾": 3644,
      "Ġgra": 3645,
      "Ð°Ð³Ð°ÑĤÐ¾": 3646,
      "ÑĥÐ»ÑıÑĢ": 3647,
      "à±Ĩà°ļ": 3648,
      "ÑĢÐ°Ð»ÑĮ": 3649,
      "Ġà¤ıà¤µ": 3650,
      "ĠÐ³Ð´Ðµ": 3651,
      "Ġà°µà°²": 3652,
      "ĠÐ¿ÑĢÐ¾Ð³ÑĢÐ°Ð¼": 3653,
      "ÑĢÐ¾Ð²Ð°ÑĤÑĮ": 3654,
      "ĠÐ·Ð°Ð»Ð¸": 3655,
      "ĠGo": 3656,
      "Ġà¤ł": 3657,
      "mos": 3658,
      "emb": 3659,
      "Ġà°¤à°²": 3660,
      "ona": 3661,
      "Ã±os": 3662,
      "Ġke": 3663,
      "Ġhom": 3664,
      "Ð¾Ð²Ð°Ð½": 3665,
      "Ġlit": 3666,
      "Ġblo": 3667,
      "ÐµÐ¼Ð¾Ð½": 3668,
      "Ġà°µà°¦": 3669,
      "Ġvol": 3670,
      "à±Ĥ.": 3671,
      "ĠÐ¶Ð¸ÑĤÑĤÑı": 3672,
      "ĠÑĢÑĭ": 3673,
      "ON": 3674,
      "ĠÐ¿ÑĢÐµÐ¿": 3675,
      "iva": 3676,
      "Ð²Ð°Ð²": 3677,
      "Ġbel": 3678,
      "ĠÑĢÑĸÐ²": 3679,
      "à°¤à°°": 3680,
      "Ð·Ð½Ð°ÑĩÐ°": 3681,
      "Ð½Ð¾Ð»Ð¾Ð³": 3682,
      "ĠÐ³ÑĢÐ¾Ð¼Ð°Ð´": 3683,
      "à¤¾à¤ĩà¤Ł": 3684,
      "Ð¾ÑĨÑĸ": 3685,
      "ĠâĦĸ": 3686,
      "Ġà¤Ĩà¤Ī": 3687,
      "ĠÐłÐ¾ÑģÑģÐ¸Ð¸": 3688,
      "Ġà°¨à°®": 3689,
      "Ġpoc": 3690,
      "ender": 3691,
      "ĠÃº": 3692,
      "Ġllev": 3693,
      "cas": 3694,
      "ĠÑĥÐ²": 3695,
      "ÐµÑģÑĤÐ²ÐµÐ½": 3696,
      "!!": 3697,
      "ĠpaÃŃs": 3698,
      "ĠÐ½Ð°Ð¼": 3699,
      "Ġà°ķà°¥": 3700,
      "Ġcos": 3701,
      "Ġà¤ħà¤°": 3702,
      "Ð½ÐµÐ¼": 3703,
      "other": 3704,
      "Ġdest": 3705,
      "Ð±Ð¸ÑĢÐ°": 3706,
      "Ð¿ÐµÑĢ": 3707,
      "ÐµÐ½ÑĤÐ¸": 3708,
      "Ð»Ð°Ð´Ð°": 3709,
      "ĠÐ¾Ð´Ð½Ð°": 3710,
      "ĠCar": 3711,
      "Ġpla": 3712,
      "lar": 3713,
      "ĠaÃ±o": 3714,
      "ĠÐ¶ÐµÐ½": 3715,
      "Ð·Ð°ÑĨÐ¸Ð¸": 3716,
      "ÐµÑĨÑĮ": 3717,
      "à¤¿à¤¹": 3718,
      "Ġà°ħà°µà°ķ": 3719,
      "Ġmo": 3720,
      "Ġprinci": 3721,
      "à±Īà°ķ": 3722,
      "ÑħÐ¾Ð´Ð¸ÑĤ": 3723,
      "na": 3724,
      "ond": 3725,
      "ĠÐ¸Ð½ÑĦÐ¾ÑĢÐ¼Ð°": 3726,
      "ax": 3727,
      "Ġempres": 3728,
      "à¥įà¤°à¤¸": 3729,
      "Ġfuer": 3730,
      "iles": 3731,
      "://": 3732,
      "red": 3733,
      "ments": 3734,
      "Ġhelp": 3735,
      "ĠÑĤÐ°Ð¼": 3736,
      "ĠÐŀÐ±": 3737,
      "à¥ĭà¤®": 3738,
      "Ġà¤Ĩà¤Ĺ": 3739,
      "ĠÐ¼Ð¾Ð»": 3740,
      "bar": 3741,
      "Ð½ÐµÑĤ": 3742,
      "ĠÑĥÐ³": 3743,
      "Ġà°°à°ķ": 3744,
      "ÑĩÑĥ": 3745,
      "Ð·Ð°ÑĨÑĸÑĹ": 3746,
      "iar": 3747,
      "ĠLos": 3748,
      "ÑĢÑıÐ´": 3749,
      "ĠÑģÐ¾Ð¾Ð±": 3750,
      "Ġpost": 3751,
      "ition": 3752,
      "ĠÐ±ÑĭÐ»Ð¸": 3753,
      "ĠÑģÐºÐ»Ð°Ð´": 3754,
      "à¥īà¤°": 3755,
      "ĠÑīÐ¾Ð´": 3756,
      "ĠÐ¿Ð¾Ð»ÑĥÑĩÐ¸": 3757,
      "ĠÐ²Ð¸ÑĢÐ¾Ð±": 3758,
      "ĠÑĢÐ¾ÐºÑĸÐ²": 3759,
      "Ġay": 3760,
      "Ġutil": 3761,
      "iness": 3762,
      "ĠÐ´Ð²": 3763,
      "à°Ĺà°°": 3764,
      "Ð°Ð»ÑĮÐ½Ð¸Ñħ": 3765,
      "ÑħÐ¸": 3766,
      "ĠÐ´Ð¸Ñģ": 3767,
      "ÑĥÑĩÐ°": 3768,
      "Ð»Ð¾Ð¼": 3769,
      "Ã¡t": 3770,
      "Wh": 3771,
      "ĠÑģÐ¾Ð¾ÑĤ": 3772,
      "\".": 3773,
      "uy": 3774,
      "ĠÑģÐ²Ñĸ": 3775,
      "Ġà°İà°µà°°": 3776,
      "Ġà¤¬à¤¦": 3777,
      "ima": 3778,
      "Ġactual": 3779,
      "Ġcomun": 3780,
      "à¤¿à¤ļ": 3781,
      "Ġah": 3782,
      "ientes": 3783,
      "à¤¼à¤ķ": 3784,
      "Ġcontra": 3785,
      "ÑĸÐ¹Ñģ": 3786,
      "ÑİÑīÐ¸Ñħ": 3787,
      "à±įà°«": 3788,
      "chool": 3789,
      "Ãºb": 3790,
      "ĠÐ²Ð»Ð°Ñģ": 3791,
      "ĠTe": 3792,
      "Ġà¤ĸà¤°": 3793,
      "ÑĪÐµÐ½Ð¸Ðµ": 3794,
      "ĠÐ¿ÑĢÐ¸Ð²": 3795,
      "Ð¸ÑĤÐ¾ÑĢ": 3796,
      "Ð°Ð»Ñĥ": 3797,
      "Ð¾Ð²Ð°Ð½Ð¸Ðµ": 3798,
      "cy": 3799,
      "ĠÐ¿ÑĢÐ¾Ð²Ð¾Ð´": 3800,
      "Ġà¤ħà¤ª": 3801,
      "ĠÐ¼ÐµÐ¶Ð´Ñĥ": 3802,
      "à±įà°ķà°°": 3803,
      "ĠÑģÑĤÐ°Ð²": 3804,
      "ĠÐ³ÑĢÑĥÐ¿": 3805,
      "Ġstart": 3806,
      "à¤¾à¤ļ": 3807,
      "ĠÐ¼Ð¾Ð»Ð¾Ð´": 3808,
      "¤ĺ": 3809,
      "à¤ĺ": 3810,
      "ious": 3811,
      "ĠÐ²ÑģÐµÑħ": 3812,
      "ont": 3813,
      "ÑĭÐ¼Ð¸": 3814,
      "ÑĩÐ¸Ð²Ð°": 3815,
      "des": 3816,
      "ĠÐ²ÐºÐ»Ñİ": 3817,
      "à±įà°¸à°°": 3818,
      "Ġpublic": 3819,
      "hip": 3820,
      "ĠÐ»Ð¸ÑģÑĤ": 3821,
      "Ġà¤Ŀ": 3822,
      "istr": 3823,
      "ctor": 3824,
      "ĠÐ·Ñĸ": 3825,
      "ĠÐ½ÐµÐ·": 3826,
      "aking": 3827,
      "Ġz": 3828,
      "Ġotros": 3829,
      "ĠÑĥÑģÑĤÐ°Ð½Ð¾Ð²": 3830,
      "ĠSo": 3831,
      "AN": 3832,
      "Ð½Ð°ÑĢÐ¾Ð´": 3833,
      "ystem": 3834,
      "ÑģÑĮÐºÑĸ": 3835,
      "70": 3836,
      "ĠPr": 3837,
      "ĠÐ³Ð¾Ð»": 3838,
      "Ġown": 3839,
      "Ġshow": 3840,
      "mas": 3841,
      "à±įà°°à°§": 3842,
      "ÑĩÐ¸ÑĤÑĮ": 3843,
      "à°Ĺà°²": 3844,
      "Ð»Ð°ÑĤ": 3845,
      "eg": 3846,
      "ved": 3847,
      "à°¾à°¯à°¨": 3848,
      "icios": 3849,
      "imiento": 3850,
      "ÑıÐ¶": 3851,
      "ÑģÐ¸ÑĤ": 3852,
      "ĊĊ": 3853,
      "Ġecon": 3854,
      "à¤ļà¤¨": 3855,
      "An": 3856,
      "ÑĶÑĹ": 3857,
      "à°¾..": 3858,
      "its": 3859,
      "ĠÐ¾Ñħ": 3860,
      "Ġbo": 3861,
      "ĠÐ²Ñĸ": 3862,
      "Ġref": 3863,
      "à±įà°µà°¹": 3864,
      "à¤¾à¤¯à¤°": 3865,
      "ĠÐ¦Ðµ": 3866,
      "ÑģÑĤÑĢÑĥ": 3867,
      "Ġhere": 3868,
      "Ð¯Ðº": 3869,
      "Ã³m": 3870,
      "Ġsuper": 3871,
      "Ð¾Ð³Ð¾Ð´": 3872,
      "Ġà°Ĩà°¦": 3873,
      "à°Ĥà°¤à°°": 3874,
      "Ġmismo": 3875,
      "Ġà°ıà°®": 3876,
      "ĠÐ¼Ð»": 3877,
      "ĠÐºÐ½Ð¸": 3878,
      "ĠÐ¼Ð¾ÑĢ": 3879,
      "ĠÐ®": 3880,
      "ĠÐ²ÑĢÐ°": 3881,
      "IN": 3882,
      "ÑĤÐ°Ðº": 3883,
      "ĠYou": 3884,
      "à¥īà¤ķ": 3885,
      "ÑĪÑĮ": 3886,
      "Ġspe": 3887,
      "ĠÐ¾Ð±Ñī": 3888,
      "Ð¿ÐµÑĢÐ°": 3889,
      "ĠÐ±ÑĥÐ²": 3890,
      "Ð¾ÑĤÐ¾ÑĢ": 3891,
      "ari": 3892,
      "ĠÐ¿Ð¾ÐºÐ°": 3893,
      "ÑģÑĤÐ¾ÑĢ": 3894,
      "Ð½Ð°Ð´": 3895,
      "Ġà¤Ĩà¤§": 3896,
      "à±įà°¶à°ķ": 3897,
      "ÐµÐ»Ñĸ": 3898,
      "à¥Īà¤¯": 3899,
      "Ð¾Ð¶Ðµ": 3900,
      "ĠÑģÐ»ÑĥÑĩÐ°Ðµ": 3901,
      "Est": 3902,
      "ĠÐ¿ÑĢÐ¾ÑĤÐ¸Ð²": 3903,
      "ĠÑĩÐµÐ»Ð¾Ð²ÐµÐº": 3904,
      "à±įà°¨à°¦": 3905,
      "à±ģà°¦à°²": 3906,
      "Ġsuch": 3907,
      "à±įà°²à°ķ": 3908,
      "EN": 3909,
      "Ð½Ð¸Ñİ": 3910,
      "ĠÐ½ÐµÐ±": 3911,
      "ÐµÑĤÑĭ": 3912,
      "Ġà¤¬à¤²": 3913,
      "way": 3914,
      "ĠÑģÑĤÐ°ÑĤ": 3915,
      "ÑģÑĤÐ²Ñĥ": 3916,
      "ÑĦÐ¾ÑĢÐ¼": 3917,
      "ws": 3918,
      "ĠÐ¼Ð½Ð¾Ð³Ð¾": 3919,
      "ĠÐ±Ð¾Ð»ÑĮÑĪÐµ": 3920,
      "ÑģÐºÐ¸Ðµ": 3921,
      "Ð²Ð¸Ð¶": 3922,
      "Ġlong": 3923,
      "Ð»ÑİÑĩ": 3924,
      "ivos": 3925,
      "ner": 3926,
      "ĠÐ½Ð°Ð±": 3927,
      "ative": 3928,
      "Ð°Ð»ÑĮÐ½Ñĸ": 3929,
      "Ġà¤īà¤ªà¤¯": 3930,
      "Ġlugar": 3931,
      "ĠÐºÐ¾Ð½ÑĤÑĢ": 3932,
      "198": 3933,
      "Ġstr": 3934,
      "any": 3935,
      "à¥ĭà¤·": 3936,
      "ĠÐ¼Ð¾Ð¼": 3937,
      "Ġpat": 3938,
      "Ġà°§à°°": 3939,
      "che": 3940,
      "à¥Īà¤°": 3941,
      "ĠestÃ¡n": 3942,
      "Ð´ÐµÑĢÐ¶": 3943,
      "Ġleg": 3944,
      "à°Ĺà°¨": 3945,
      "ĠÐ·Ð°ÑģÑĤ": 3946,
      "ÑīÐ¸Ð¹": 3947,
      "ĠÐ¿ÑĢÐ°Ð²Ð¾": 3948,
      "Ð°Ð»ÑĮÐ½Ð¾Ð¹": 3949,
      "Ġprincip": 3950,
      "ican": 3951,
      "Ġpodr": 3952,
      "Ġdep": 3953,
      "Ġmundo": 3954,
      "âĢĻÑĶ": 3955,
      "ST": 3956,
      "ibil": 3957,
      "Ġhace": 3958,
      "Ð°Ð»ÑĸÐ·": 3959,
      "à¥ĩ.": 3960,
      "alth": 3961,
      "endo": 3962,
      "à°µà°¨": 3963,
      "Ġpersonal": 3964,
      "Ġdifer": 3965,
      "ÐµÐ³Ð¾Ð´": 3966,
      "ĠÑħÐ¾ÑĤ": 3967,
      "ĠÑĢÐ°Ð±Ð¾ÑĤÑĭ": 3968,
      "Ġprev": 3969,
      "Ġdesar": 3970,
      "Ġinvest": 3971,
      "ĠÑĢÐ¾Ð·Ð²Ð¸ÑĤ": 3972,
      "ĠÑĢÐµÐ±": 3973,
      "ĠÐ°Ð²ÑĤÐ¾Ð¼Ð¾Ð±": 3974,
      "ĠÐ³Ð¾ÑģÑĥÐ´Ð°ÑĢ": 3975,
      "ĠÐ¿ÑĢÐµÐ·": 3976,
      "à±Īà°Ĥ": 3977,
      "Ġà¤ľà¤²": 3978,
      "ĠÑģÐ¾Ð·Ð´Ð°": 3979,
      "gen": 3980,
      "Ð°ÑĢÐ¸": 3981,
      "ĠÐ¿Ð»Ð¾": 3982,
      "Ð¾Ð·Ð¸": 3983,
      "can": 3984,
      "Ġread": 3985,
      "ĠCol": 3986,
      "ĠÐ»Ð¸ÑĪÐµ": 3987,
      "Ġmade": 3988,
      "Ġej": 3989,
      "à±ĭà°®": 3990,
      "....": 3991,
      "ÑĢÑĸÐ²": 3992,
      "à¤¾à¤Ń": 3993,
      "Ġespecial": 3994,
      ",\"": 3995,
      "ÐºÑĥÑİ": 3996,
      "Ġlast": 3997,
      "Ð°Ð»ÑĮÐ½ÑĭÑħ": 3998,
      "à±ģà°·": 3999,
      "à°¿à°¯à°¨": 4000,
      "Ġthose": 4001,
      "Ġsm": 4002,
      "ĠÐ´ÐµÐ¿": 4003,
      "Ð¾Ð»Ð½Ð¸": 4004,
      "Ġelect": 4005,
      "Ð¿ÑĢÐ°Ð²": 4006,
      "Ġà¤ħà¤ķ": 4007,
      "ger": 4008,
      "ÐµÑĢÑĸÐ²": 4009,
      "ĠÐ¿Ð¾Ð»ÑĥÑĩ": 4010,
      "Ġfol": 4011,
      "à¥Ģà¥¤Ċ": 4012,
      "ĠÐ±ÑĥÐ´ÑĮ": 4013,
      "Ð¶Ñĥ": 4014,
      "Ð¾Ð»Ñİ": 4015,
      "empre": 4016,
      "velop": 4017,
      "be": 4018,
      "ank": 4019,
      "ÐµÑĢÐ³": 4020,
      "à±Ĥà°¤": 4021,
      "ĠEx": 4022,
      "ÑģÐºÐ°Ñı": 4023,
      "Ġesp": 4024,
      "cias": 4025,
      "ĠPl": 4026,
      "ĠÐ¾Ð³": 4027,
      "à±ĩà°¦à°¨": 4028,
      "à¥Īà¤ł": 4029,
      "à°¾à°¯à°ķ": 4030,
      "ĠÐĴÐ¸": 4031,
      "aje": 4032,
      "ĠÐ¾Ð±ÑıÐ·": 4033,
      "à±įà°·à°²": 4034,
      "ĠÐ¿ÑĢÐ¾Ñģ": 4035,
      "ÑģÑĤÑĢÐµ": 4036,
      "land": 4037,
      "ientos": 4038,
      "90": 4039,
      "ÑĢÐ¾Ð½": 4040,
      "à°¾à°²à°²": 4041,
      "Ġdoes": 4042,
      "35": 4043,
      "Ð¿ÑĢÐ¸ÑĶÐ¼": 4044,
      "Ð¿Ðµ": 4045,
      "uego": 4046,
      "Ġtanto": 4047,
      "ĠÐºÐ°ÑĤ": 4048,
      "ĠÐºÐ°Ð½": 4049,
      "ĠÑĤÐ°ÐºÐ¸Ñħ": 4050,
      "ĠÑĨÑĮÐ¾Ð¼Ñĥ": 4051,
      "ĠÐ²Ð¸ÐºÐ¾ÑĢÐ¸ÑģÑĤÐ¾Ð²": 4052,
      "ms": 4053,
      "lish": 4054,
      "ĠÑĤÑĢÑĥÐ´": 4055,
      "ÑĭÐ²Ð°ÐµÑĤ": 4056,
      "Ġday": 4057,
      "entro": 4058,
      "ÑħÐ°": 4059,
      "Ð°Ð»Ð¾ÑģÑĮ": 4060,
      "OR": 4061,
      "Ġbefore": 4062,
      "Ġà¤ĩà¤¤": 4063,
      "Ð½ÑĸÑħ": 4064,
      "ÑĭÐ²Ð°ÑĤÑĮ": 4065,
      "à¤Ĥà¤ªà¤¨": 4066,
      "ah": 4067,
      "Ġsoci": 4068,
      "ĠÐļÐ¾Ð½": 4069,
      "à¥ĩà¤Ĥ,": 4070,
      "ĠÑģÐ¾Ð¾ÑĤÐ²ÐµÑĤ": 4071,
      "à¥Įà¤¤": 4072,
      "Ġexist": 4073,
      "Ð°ÑĤÐ¾Ñĩ": 4074,
      "ĠÑĨÐ²ÐµÑĤ": 4075,
      "Ġà¤ķà¤²": 4076,
      "Ġà°İà°¦": 4077,
      "à¥Ĥà¤¦": 4078,
      "cn": 4079,
      "Ġà¤¤à¤¥": 4080,
      "ÑĪÐ¸Ð¼": 4081,
      "ĠÐ·Ð°ÑıÐ²": 4082,
      "ĠÐ´Ð¾ÑģÑĤÑĥÐ¿": 4083,
      "Ð¾Ð²Ð°ÑĢ": 4084,
      "ĠÐ²Ð¾Ð½Ð°": 4085,
      "ĠÐ·Ð°Ð¹": 4086,
      "Ġass": 4087,
      "Ð°Ð´Ð°": 4088,
      "vo": 4089,
      "à¥ĩà¤¯à¤°": 4090,
      "ĠFor": 4091,
      "ĠÐ²Ð°ÑĢ": 4092,
      "uÃ©s": 4093,
      "ĠÐ¿ÑĢÐ¸Ð¼ÐµÐ½": 4094,
      "ÑģÐ¸Ñħ": 4095,
      "ĠÃºlt": 4096,
      "à¥įà¤µà¤°": 4097,
      "ator": 4098,
      "Ġà°ħà°µà°¸à°°": 4099,
      "500": 4100,
      "aÃ±": 4101,
      "Ġdurante": 4102,
      "ĠÐºÐ°Ð¼": 4103,
      "à±įà°°à°¶": 4104,
      "ĠÐºÐ»Ð°Ñģ": 4105,
      "ĠÐ±ÑĭÐ»Ð°": 4106,
      "ÑĮÑı": 4107,
      "Ġret": 4108,
      "Ġbeing": 4109,
      "Ġà°¬à°¯": 4110,
      "ited": 4111,
      "Ð²ÑģÑı": 4112,
      "Ġera": 4113,
      "Ġà¤ľà¤®": 4114,
      "Ġlu": 4115,
      "Ð³Ð¾ÑĤ": 4116,
      "ĠÐ¿Ð¾Ð»Ð¾Ð¶": 4117,
      "bo": 4118,
      "Ð°Ð»ÑĮÐ½ÑĭÐµ": 4119,
      "Ð¾Ð³Ñĥ": 4120,
      "Ġgreat": 4121,
      "Ð½Ð¸ÐµÐ¼": 4122,
      "ĠÑģÐ¸Ð¼": 4123,
      "ÑīÐ¸Ðµ": 4124,
      "ÑĸÑģÑĤÑĮ": 4125,
      "Ð¾Ð»Ñı": 4126,
      "ĠÐ²ÑĭÑģÐ¾Ðº": 4127,
      "ĠÐ¿ÑĢÐ°ÑĨÑİ": 4128,
      "Ġtom": 4129,
      "ĠÐ±ÑĸÐ»ÑĮÑĪÐµ": 4130,
      "ÐµÑĩÐµÐ½Ð¸Ðµ": 4131,
      "à±ģà°Ń": 4132,
      "ÐµÐ½Ð½ÑĭÑħ": 4133,
      "Ġext": 4134,
      "à±ĥà°¦": 4135,
      "Ð´Ð¸Ð½": 4136,
      "Ġciudad": 4137,
      "Ġintern": 4138,
      "amp": 4139,
      "ieron": 4140,
      "ĠÐ´Ð°Ð²": 4141,
      "Ġnum": 4142,
      "Ġà¤īà¤¦": 4143,
      "ĠÐ¿Ð¾Ð²Ð¸Ð½": 4144,
      "Ġfl": 4145,
      "à¤Ĩà¤Ī": 4146,
      "Ð°Ð½Ð¾Ð²": 4147,
      "ĠÑģÐ¸Ð»ÑĮ": 4148,
      "ÑĢÐµÐ¿": 4149,
      "Ġmater": 4150,
      "à¥įà¤°à¤Ń": 4151,
      "ange": 4152,
      "Ġbar": 4153,
      "ÑĥÑģÐºÐ°": 4154,
      "Ġsist": 4155,
      "ĠÐ±ÑĥÐ»Ð¸": 4156,
      "ĠÐºÐ¸": 4157,
      "à¥ĩà¥¤Ċ": 4158,
      "Ġà¤Ĩà¤¸": 4159,
      "Ġcab": 4160,
      "ĠÑģÐ¾ÑģÑĤÐ¾Ñı": 4161,
      "ĠÑĢÐ¾Ð±Ð¾ÑĤÐ¸": 4162,
      "ĠÐ²Ð¸ÐºÐ¾Ð½": 4163,
      "ĠÐºÑĢÐµÐ´": 4164,
      "cil": 4165,
      "Ġadd": 4166,
      "Ġfil": 4167,
      "ÑĥÐ»Ð¸": 4168,
      "Ġà¤¸à¤®à¤Ŀ": 4169,
      "Ġeff": 4170,
      "ĠÐ²Ð´": 4171,
      "\".Ċ": 4172,
      "Ð¼ÐµÐ½Ð½Ð¾": 4173,
      "ĠÑĤÐ²Ð¾ÑĢ": 4174,
      "ale": 4175,
      "ĠÐ¿Ð¾ÑĢÑıÐ´": 4176,
      "Ã³lo": 4177,
      "ĠÐŁÑĢÐ¾": 4178,
      "ves": 4179,
      "à¤²à¤¬": 4180,
      "Ð°ÑĤÐºÑĥ": 4181,
      "Ð»Ð¾Ðº": 4182,
      "OS": 4183,
      "Ġtener": 4184,
      "ĠÐ¿ÑĢÐ¸Ð·Ð½Ð°": 4185,
      "ĠÑĤÐµÐ»Ðµ": 4186,
      "ĠÐļÐ°Ðº": 4187,
      "Ð°Ð»ÑģÑı": 4188,
      "Ġconsider": 4189,
      "ÑĤÑĥÑĢÐ¸": 4190,
      "Ð²Ð°Ð¶Ð°": 4191,
      "ĠÐ½Ð°ÑħÐ¾Ð´": 4192,
      "ÐµÐ·Ð¿ÐµÑĩ": 4193,
      "Ġpueden": 4194,
      "ĠÑģÐ¿Ð¾ÑĢ": 4195,
      "Ð°Ð½ÑĤÐ°": 4196,
      "ĠÐ³Ð»Ð°Ð²": 4197,
      "ĠPar": 4198,
      "ĠÐ¼Ð¾": 4199,
      "Ð°Ð»Ð¸ÑģÑĮ": 4200,
      "ri": 4201,
      "ÑĪÐ¸Ðµ": 4202,
      "ĠÑģÐ¾ÑĤ": 4203,
      "Ð»ÐµÐºÑĤÑĢ": 4204,
      "ĠÐ²Ð¸ÑĤ": 4205,
      "Ġoper": 4206,
      "Ð½ÑĮÐ¾Ð³Ð¾": 4207,
      "Ġprote": 4208,
      "ĠÐ¼Ð¾Ð¶ÑĥÑĤÑĮ": 4209,
      "ĠÑĢÐµÐºÐ¾Ð¼ÐµÐ½": 4210,
      "ĠÑģÐ²Ð¾Ð¸": 4211,
      "Ð¾ÑĢÐ¸Ð¸": 4212,
      "à¤¾Ċ": 4213,
      "II": 4214,
      "ÐĶÐ»Ñı": 4215,
      "Ġtake": 4216,
      "Ð°Ð»ÑĮÐ½ÑĭÐ¹": 4217,
      "ĠÐ¼Ð°ÑĤÐµÑĢÑĸ": 4218,
      "ÑģÑĤÐ°Ð²Ð¸": 4219,
      "ĠÐ¿Ð¾Ð·Ð¸": 4220,
      "Ġapp": 4221,
      "ĠBut": 4222,
      "ĠÐ¸Ð½ÑĤÐµÑĢÐµÑģ": 4223,
      "Ð¸ÑĤÑĮÑģÑı": 4224,
      "Ġà°¸à°®à°¸": 4225,
      "Ġunder": 4226,
      "Ġà°Ĩà°§": 4227,
      "ĠÑīÐ¾Ð´Ð¾": 4228,
      "Ð²Ð¸ÑĩÐ°Ð¹": 4229,
      "Ġà¤ªà¤¢": 4230,
      "à±įà°°à°¹": 4231,
      "ĠÐ²ÐµÑģ": 4232,
      "ÑĤÑĢÐ¸Ð¼": 4233,
      "ĠÐ¿Ð¾Ð»ÑĮÐ·": 4234,
      "Ġinformation": 4235,
      "Ġfact": 4236,
      "ĠÐ½Ð°Ð²Ñĩ": 4237,
      "ĠÐ½ÐµÐ²": 4238,
      "Ð¾ÑĤÑĥ": 4239,
      "ĠÐ£ÐºÑĢÐ°ÑĹÐ½Ñĸ": 4240,
      "ĠÐ¿ÑĢÐ¾Ð´Ð°": 4241,
      "ÐµÐ½ÑĤÑĭ": 4242,
      "Ġsegu": 4243,
      "ĠÐ²ÑĭÐ¿Ð¾Ð»": 4244,
      "jos": 4245,
      "Ġà°ªà°²": 4246,
      "31": 4247,
      "ĠÐ´ÑĸÑıÐ»ÑĮ": 4248,
      "ĠÑįÑĤÐ¾ÑĤ": 4249,
      "por": 4250,
      "à°¿à°¨à°ª": 4251,
      "à°¬à°°": 4252,
      "ĠÐ³Ð°": 4253,
      "crib": 4254,
      "à¥įà¤°à¤¶": 4255,
      "Ð»Ð¸Ð²Ð¸": 4256,
      "Ġles": 4257,
      "ÑģÑĤÑĢÐ¾Ð¹": 4258,
      "imes": 4259,
      "ĠÐ¿Ð»": 4260,
      "Ġsolo": 4261,
      "ĠÐ½ÐµÑģÐºÐ¾Ð»ÑĮÐºÐ¾": 4262,
      "ĠÑĢÐµÑĩ": 4263,
      "ĠÐ¢Ð°": 4264,
      "ĠÐºÐ»Ð¸": 4265,
      "ĠÐĲÐ»Ðµ": 4266,
      "Ġtrabajo": 4267,
      "ÑĢÐ°Ñī": 4268,
      "Ġquien": 4269,
      "ĠÐ¶Ð¸Ð·Ð½Ð¸": 4270,
      "à°¨à°²": 4271,
      "chn": 4272,
      "ĠÑįÑĤÐ¾Ð¹": 4273,
      "ĠÐ³ÑĢÐ¸": 4274,
      "Ġworld": 4275,
      "Ð»Ð°Ð¹Ð½": 4276,
      "ÐºÐ°Ð¼": 4277,
      "ense": 4278,
      "ceso": 4279,
      "ÑĩÐ¸ÑĤ": 4280,
      "ÑĹÐ²": 4281,
      "Ġfind": 4282,
      "ÑĭÑĤ": 4283,
      "Ð¾Ð½Ñĸ": 4284,
      "ÐºÑģÐ¿ÐµÑĢ": 4285,
      "à¥ģà¤·": 4286,
      "ather": 4287,
      "ĠÐ¿ÑĢÐ¾Ð¼": 4288,
      "Ð½ÑĥÑĤÐ¸": 4289,
      "Ġencon": 4290,
      "ĠÐ¡ÑĤ": 4291,
      "Ġà¤īà¤®": 4292,
      "Ð»Ð¾ÑģÑĮ": 4293,
      "yect": 4294,
      "oh": 4295,
      "ĠAmer": 4296,
      "ÑĩÐ¸Ð²": 4297,
      "ĠÑĤÑĥÑĤ": 4298,
      "Ġà¤®à¤¦": 4299,
      "ĠÐ²Ð¸Ð¿Ð°Ð´": 4300,
      "Ð½Ð°Ð¼Ð¸": 4301,
      "Ġcuenta": 4302,
      "Ġà°ķà°®": 4303,
      "Ġhor": 4304,
      "Ð¼Ð°ÑĤÐ¸": 4305,
      "ĠÑģÐ¾Ð´": 4306,
      "Ġmas": 4307,
      "ĠÐ±ÐµÑģÐ¿": 4308,
      "ÑĢÐ°Ð·Ñĥ": 4309,
      "ental": 4310,
      "à±Ĭà°ļ": 4311,
      "Ð±ÑĸÐ»ÑĮ": 4312,
      "à¥įà¤·à¤£": 4313,
      "ĠÐ½Ð°Ð²Ñĸ": 4314,
      "âĢ¢": 4315,
      "ĠÐºÐ¾": 4316,
      "ĠÐºÐ²Ð°ÑĢ": 4317,
      "ÑģÐºÐ¾Ð¼": 4318,
      "Ġdej": 4319,
      "Ġconse": 4320,
      "Ð½Ð¸ÑĩÐµÑģ": 4321,
      "ĠUnivers": 4322,
      "Ġà¤Ī": 4323,
      "Ġsea": 4324,
      "à±ĩà°³": 4325,
      "ĠÐ½ÐµÐ¾Ð±ÑħÐ¾Ð´Ð¸Ð¼Ð¾": 4326,
      "AS": 4327,
      "ĠÑĥÑĢÐ¾Ð²": 4328,
      "Ġà¤²à¤¡": 4329,
      "icial": 4330,
      "unque": 4331,
      "ĠÐ¼ÑĥÐ¶": 4332,
      "Ð¾Ð²Ð¾": 4333,
      "Ġayud": 4334,
      "Ġsiempre": 4335,
      "ĠÐ·Ð°Ð½": 4336,
      "ĠÐŀÑĤ": 4337,
      "à°¿à°«": 4338,
      "Ð¸Ð½Ðµ": 4339,
      "ĠIs": 4340,
      "ĠÐ³Ð°Ð·": 4341,
      "Ð¸Ñı": 4342,
      "ÑģÑĤÐ²Ð¾Ð¼": 4343,
      "à°Ĥà°µ": 4344,
      "45": 4345,
      "Ġcaso": 4346,
      "ĠÐ¼Ð¾Ð¶ÐµÑĤÐµ": 4347,
      "Ð¶Ð´Ð°": 4348,
      "ÑĩÐ¸ÑĤÐ¸": 4349,
      "Ġho": 4350,
      "encias": 4351,
      "ĠÑĤÐµÑħÐ½Ð¾Ð»Ð¾Ð³": 4352,
      "Ġgeneral": 4353,
      "ÐºÐ°Ð½": 4354,
      "Ġmes": 4355,
      "rist": 4356,
      "ĠÑįÑĦ": 4357,
      "ÐµÐ³Ð¾Ð´Ð½Ñı": 4358,
      "à¥ĩà¤ª": 4359,
      "ĠÑĢÐ°Ð´Ð¸": 4360,
      "ĠÐ¿Ð¾ÐºÑĥÐ¿": 4361,
      "Ð»ÑıÑħ": 4362,
      "à¤¿à¤¡": 4363,
      "ĠÐ±Ñİ": 4364,
      "Ġsitu": 4365,
      "Ġend": 4366,
      "Ġà¤°à¤¹à¤¤": 4367,
      "Ġsay": 4368,
      "Ã³mo": 4369,
      "ÑĮÐ¾Ð³Ð¾Ð´": 4370,
      "ĠÐ¿ÑĢÐ°Ð²Ð°": 4371,
      "Ġestos": 4372,
      "à¥ĭà¤¬": 4373,
      "ĠÐ·ÑĢÐ¾Ð±": 4374,
      "Ġpoint": 4375,
      "ÑģÑĤÐ²Ð¸Ñı": 4376,
      "ÑģÑĤÐ²Ð¸Ðµ": 4377,
      "Ð¿Ð¾ÑĢ": 4378,
      "ĠÐ½ÐµÐ¼": 4379,
      "ÐµÑĢÐº": 4380,
      "à±ĭà°¹": 4381,
      "Ð¸Ð¼Ð¾": 4382,
      "ĠÑĤÑĢ": 4383,
      "Ð»ÐµÐ³": 4384,
      "We": 4385,
      "Ġsomet": 4386,
      "à¥Ĥà¤ľ": 4387,
      "ĠÐºÐ¾Ð»Ð¸Ñĩ": 4388,
      "ĠÐ¾ÑĤÐ´": 4389,
      "ĠÑĩÐ°ÑģÑĤÐ¾": 4390,
      "à¤Ĥà¤¬à¤°": 4391,
      "Ð°Ñı": 4392,
      "Ġà°Ĺà°¤": 4393,
      "vis": 4394,
      "cel": 4395,
      "Ġestud": 4396,
      "urs": 4397,
      "Los": 4398,
      "à¤¿à¤¯à¤®": 4399,
      "Ġchar": 4400,
      "ĠOr": 4401,
      "Ð½Ð¸ÑĤÑĮ": 4402,
      "Ð°ÑĢÑı": 4403,
      "Ġmucho": 4404,
      "-Ñı": 4405,
      "led": 4406,
      "ĠÐŀÐ½": 4407,
      "Ð°Ð»Ð°ÑģÑĮ": 4408,
      "ÐµÐ½Ñĸ": 4409,
      "ÑīÐµÐµ": 4410,
      "à¤¨à¤²": 4411,
      "ĠÑĥÑĩÐ°ÑģÑĤ": 4412,
      "ĠÐ¾ÑĢÐ³Ð°Ð½Ñĸ": 4413,
      "ĠÐ¼Ð½Ðµ": 4414,
      "ĠÑģÑĤÐ°ÑĤÑĮ": 4415,
      "Ġgoing": 4416,
      "âĢĿ.Ċ": 4417,
      "à¥ĩà¤Ĥà¥¤": 4418,
      "ĠÑģÑħ": 4419,
      "Ð°Ð½Ð½Ñĸ": 4420,
      "Ġteam": 4421,
      "Ð½Ð¸ÐºÐ¾Ð¼": 4422,
      "Ġà°īà°ªà°¯": 4423,
      "Ġcualquier": 4424,
      "Ġrealiz": 4425,
      "rid": 4426,
      "Ðĸ": 4427,
      "Ġsocial": 4428,
      "ĠÑĢÐµÐ¶": 4429,
      "ÑĩÐ°ÑĤÑĮ": 4430,
      "Ð°ÐºÑģÐ¸Ð¼": 4431,
      "'ÑıÐ·": 4432,
      "Ġlocal": 4433,
      "à±įà°£à°¯": 4434,
      "ĠÐ¿Ð¾Ð¶": 4435,
      "ĠPor": 4436,
      "ĠÑģÐ¾Ð±ÑģÑĤÐ²ÐµÐ½": 4437,
      "ÐµÐ³Ð´Ð°": 4438,
      "ently": 4439,
      "ines": 4440,
      "illa": 4441,
      "Ġthough": 4442,
      "Ġcour": 4443,
      "Ġincre": 4444,
      "miento": 4445,
      "ĠÑıÐºÐ¸Ñħ": 4446,
      "Ġyo": 4447,
      "à¤²à¤¤": 4448,
      "Ð½ÑıÑĤÑĮ": 4449,
      "ĠÑĤÐµÐ±": 4450,
      "Ġrepres": 4451,
      "Ð°Ð¿": 4452,
      "Ġà°ĺ": 4453,
      "Ġà¤īà¤ł": 4454,
      "ĠÐľÐ¸": 4455,
      "ĠÐŀÐ´Ð½Ð°": 4456,
      "ĠÐ¿Ð°Ð¼": 4457,
      "Ġer": 4458,
      "Ð¾Ð´Ð°Ð²": 4459,
      "Ġà¤ĩà¤¸à¤²": 4460,
      "à±įà°°à°ľà°²": 4461,
      "vern": 4462,
      "Ð¾ÑĢÐ°Ñı": 4463,
      "ĠÐ¿ÑĢÐ¸Ð½": 4464,
      "ĠÐ³Ð»Ð°": 4465,
      "ĠÐºÑĤÐ¾": 4466,
      "ĠÐŁÐµÑĢ": 4467,
      "Ġreally": 4468,
      "ÑĥÑīÐµÑģÑĤÐ²": 4469,
      "ĠÐ¿Ð¾Ð¼Ð¾Ñī": 4470,
      "ever": 4471,
      "Ġà°ĩà°¨": 4472,
      "à¥Ģà¤µà¤¨": 4473,
      "Â¿": 4474,
      "Ð¾ÐºÑĥ": 4475,
      "Ð½ÐµÐ²": 4476,
      "à¤¾à¤¯à¤¤": 4477,
      "Ġà¤®à¤ľ": 4478,
      "Ġdiffer": 4479,
      "Ġfund": 4480,
      "Ð¾Ð½Ð¾Ð¼": 4481,
      "Ġnuestro": 4482,
      "Ġà¤ľà¤¹": 4483,
      "ĠÑĸÐ½ÑĪÐ¸Ñħ": 4484,
      "ĠÐ¿ÑĢÐµÐ¿Ð°ÑĢÐ°": 4485,
      "Ð¼ÐµÑĤÐ¸": 4486,
      "ĠCl": 4487,
      "Ð³Ð»ÑıÐ´": 4488,
      "ÐµÐ´ÐµÑĢÐ°": 4489,
      "à±Ĭà°¦à°Ł": 4490,
      "ames": 4491,
      "à¤Ĥà¤ª": 4492,
      "ĠÐ´ÐµÑĢ": 4493,
      "IC": 4494,
      ".\"Ċ": 4495,
      "ĠInd": 4496,
      "Ġese": 4497,
      "ÑĮÐ¾Ð³Ð¾Ð´Ð½Ñĸ": 4498,
      "Ġmomento": 4499,
      "ĠÐ¾ÑĤÑĢÐ¸Ð¼": 4500,
      "ÑĤÐ°Ð¼Ð¸": 4501,
      "Ġà°Ĩà°ķ": 4502,
      "ĠÐ±Ð»Ð¸Ð·": 4503,
      "Ġà¤Ĺà¤°": 4504,
      "cor": 4505,
      "à°¾?": 4506,
      "ĠIf": 4507,
      "ĠÐ³Ð¾ÑĤÐ¾Ð²": 4508,
      "Ġdar": 4509,
      "à±ģà°²à°¤": 4510,
      "ĠÑĢÑĸÑĪ": 4511,
      "Con": 4512,
      "ĠÑĤÑĢÐ°Ð²": 4513,
      "ruct": 4514,
      "ÐºÑĥÑģ": 4515,
      "Ġotro": 4516,
      "ĠÑģÐ´ÐµÐ»Ð°": 4517,
      "ĠÐ½ÐµÐº": 4518,
      "ĠÑĥÑģÐ»Ð¾Ð²Ð¸": 4519,
      "Ġbest": 4520,
      "à¥įà¤°à¤¯": 4521,
      "à¤¾à¤¹à¤°": 4522,
      "âĢ¦Ċ": 4523,
      "Ð½Ð°Ñħ": 4524,
      "ract": 4525,
      "ĠÐ·Ð°Ð´Ð°": 4526,
      "Ġbaj": 4527,
      "aria": 4528,
      "ĠÐ¿ÑĢÐ¾ÑĤÐ¸": 4529,
      "ÑĢÑĥÐ³": 4530,
      "ĠÐ¿ÐµÑĢÐµÐ¼": 4531,
      "ĠÐ¼ÑĥÐ·": 4532,
      "Ġà¤¤à¤¬": 4533,
      "ateg": 4534,
      "ĠÐºÐ¾ÑĤÐ¾ÑĢÐ°Ñı": 4535,
      "ĠÐ¿ÑĢÐ°Ð²Ð¸Ð»ÑĮ": 4536,
      "Ð»ÑıÑĤÑĮ": 4537,
      "à±įà°¦à°°": 4538,
      "Ġlead": 4539,
      "ÑĢÐ¸ÑģÑĤ": 4540,
      "Ġmil": 4541,
      "ÐļÐ°Ðº": 4542,
      "Ð´ÐµÐ»Ð¸": 4543,
      "ĠÐºÐ°Ð¿": 4544,
      "mail": 4545,
      "ades": 4546,
      "ĠÐ°Ð»": 4547,
      "read": 4548,
      "Ġir": 4549,
      "ÑīÐµÐ½Ð½Ñı": 4550,
      "Ġsido": 4551,
      "AL": 4552,
      "Ġlim": 4553,
      "ĠÐ´ÐµÐº": 4554,
      "à¥į": 4555,
      "Ġreport": 4556,
      "Ð¢Ð°Ðº": 4557,
      "ĠÑĤÑĢÑĥ": 4558,
      "ĠMan": 4559,
      "Ð½Ð°Ð½Ð½Ñı": 4560,
      "ric": 4561,
      "ÑĤÑĥÑĢÐ°": 4562,
      "ĠÐ¾Ð´Ð½Ð¾Ð³Ð¾": 4563,
      "ĠÐ¿ÑĸÐ´Ð¿ÑĢÐ¸ÑĶÐ¼": 4564,
      "ĠÑĢÐ°Ð±Ð¾ÑĤÐ°": 4565,
      "ote": 4566,
      "Ġmenos": 4567,
      "ĠÑģÑĤÐ¾ÑĢÐ¾": 4568,
      "ung": 4569,
      "Ð¨ÐĲ": 4570,
      "ÑĪÐµÐ½Ð½Ñı": 4571,
      "à¤¿à¤¸à¤®": 4572,
      "Ġwhile": 4573,
      "Ð¾Ð²Ð¾Ð¹": 4574,
      "Ġhand": 4575,
      "Ð¾Ð½Ðµ": 4576,
      "ables": 4577,
      "à¥ĭà¤ļ": 4578,
      "ĠÐ¾ÑĤÑĢÐ¸": 4579,
      "à±įà°¤à°²": 4580,
      "ĠÐ²ÑĸÐ´Ðº": 4581,
      "ĠÐ±Ð°Ð³Ð°ÑĤÐ¾": 4582,
      "Ġà¤ħà¤Ĺ": 4583,
      "ĠinformaciÃ³n": 4584,
      "Ġà°ķà°³": 4585,
      "Ġà¤¬à¤°": 4586,
      "ages": 4587,
      "leg": 4588,
      "ĠÐ·Ð²ÐµÑĢ": 4589,
      "ĠÐ²Ð·Ð°": 4590,
      "Ġà¤ķà¤ª": 4591,
      "ba": 4592,
      "Ġcoun": 4593,
      "Ġrun": 4594,
      "ĠpolÃŃt": 4595,
      "à°ĤĊ": 4596,
      "ĠÐ°Ð³": 4597,
      "ute": 4598,
      "ĠÑĤÐ¾Ð²Ð°ÑĢ": 4599,
      "Ġfu": 4600,
      "Ġsystem": 4601,
      "ÑİÑīÐ¸Ðµ": 4602,
      "ÑīÐ°Ñı": 4603,
      "AT": 4604,
      "ix": 4605,
      "à¤¾.Ċ": 4606,
      "ÑģÑĸ": 4607,
      "ÑĢÐµÐ¼ÐµÐ½": 4608,
      "ĠÐłÐ¤": 4609,
      "Ð´Ð°Ð²": 4610,
      "Ġmer": 4611,
      "Ð¾Ð´Ð°ÑĤ": 4612,
      "Ð°Ð»Ð¸ÑģÑĤ": 4613,
      "à±Ģà°Ĺ": 4614,
      "ĠÐ´Ð½Ñı": 4615,
      "Ġcontrol": 4616,
      "Ð»Ð¸ÑģÑı": 4617,
      "ĠÐ½Ð°Ð²ÑĸÑĤÑĮ": 4618,
      "ĠÑģÐ²Ð¾Ð¹": 4619,
      "enciÃ³n": 4620,
      "ĠÐºÐ¾Ð½ÑĨ": 4621,
      "ĠÐºÐ¾ÑĤÐ¾ÑĢÑĭÑħ": 4622,
      "mar": 4623,
      "Ð¾Ð»Ð¾": 4624,
      "Ġsit": 4625,
      "ĠÐ³Ð¾ÑĢÐ¾Ð´": 4626,
      "Ġstill": 4627,
      "ĠÑģÑĥÐ¿": 4628,
      "Ġthree": 4629,
      "Ð°ÑĤÐµÐ»ÑĮÐ½Ð¾": 4630,
      "ĠÐ¿Ð°ÑĢÑĤ": 4631,
      "Ġmot": 4632,
      "Ġhaci": 4633,
      "ÑĥÑİÑĤÑĮÑģÑı": 4634,
      "aban": 4635,
      "ĠÐ´ÑĸÑĤ": 4636,
      "ĠÐ¿ÑĢÐ¾Ð³": 4637,
      "ĠÐ½Ð°Ð¿ÑĢÐ°Ð²": 4638,
      "Ġencontr": 4639,
      "ĠÑģÑĤÐ¾Ð»": 4640,
      "Ġmanera": 4641,
      "ĠÐ¾ÑĢÐ³Ð°Ð½Ð¸Ð·": 4642,
      "âĢĿ.": 4643,
      "Ð½ÑĸÑģÑĤÑİ": 4644,
      "à¤¾-": 4645,
      "zar": 4646,
      "ĠÐ²Ð¸Ð·Ð½Ð°": 4647,
      "erse": 4648,
      "Ġtan": 4649,
      "à¥Ģà¤ıà¤®": 4650,
      "Ð»ÐµÐ½Ð°": 4651,
      "ÐµÐ¹ÑĩÐ°Ñģ": 4652,
      "Ġhome": 4653,
      "Ġtrav": 4654,
      "à¤¼à¤°": 4655,
      "ĠÐ¿ÑĢÐ¸ÑĢÐ¾Ð´": 4656,
      "ĠDes": 4657,
      "ÑĦÐ¸ÑĨÐ¸": 4658,
      "Ġà¤Ĭ": 4659,
      "book": 4660,
      "à°¾à°«": 4661,
      "ĠÐ±Ñĸ": 4662,
      "Ð½ÑĥÑĤÑĮ": 4663,
      "ĠÐ¾Ð±ÐµÑģÐ¿": 4664,
      "Ġà°¸à°Ń": 4665,
      "Ġeso": 4666,
      "Ġllam": 4667,
      "ĠÑĩÐ¸Ð½": 4668,
      "Ð½Ð¾Ðº": 4669,
      "ÑĨÐ¸Ð¿": 4670,
      "ĠÐ¾ÑģÑĤÐ°Ð½": 4671,
      "Ð½ÑĸÑĪÐµ": 4672,
      "Ġà¤¬à¤ľ": 4673,
      "Ġà¤ľà¤Ĺ": 4674,
      "ÑĢÐ°ÑĤÑĮ": 4675,
      "af": 4676,
      "Ġà¤ıà¤¸": 4677,
      "ĠÐ·Ð°Ð²Ð¸": 4678,
      "air": 4679,
      "ÑħÐ¾Ð´Ð¸ÑĤÑĮ": 4680,
      "à±įà°ªà°¡": 4681,
      "ĠÐ±ÑĥÐ´ÑĥÑĤ": 4682,
      "à¥ĥà¤·": 4683,
      "ĠÃ¡": 4684,
      "Ġnuestra": 4685,
      "ĠÑģÑĥÑīÐµÑģÑĤÐ²": 4686,
      "ancia": 4687,
      "ĠÑĸÐ½ÑĤÐµÑĢ": 4688,
      "fic": 4689,
      "Ð±ÑĥÐ´": 4690,
      "Ð¸Ð³": 4691,
      "Ġà¤ĵà¤°": 4692,
      "lease": 4693,
      "Ġencu": 4694,
      "Ð°Ð»Ðµ": 4695,
      "Ġmus": 4696,
      "Ð»ÐµÐ½Ð¾": 4697,
      "Ġweek": 4698,
      "Ġorig": 4699,
      "uciÃ³n": 4700,
      "Ġdevelop": 4701,
      "à¤¿à¤Ľ": 4702,
      "Ġemp": 4703,
      "tact": 4704,
      "Ġà°İà°ª": 4705,
      "Ġpes": 4706,
      "ĠÐ·Ð´ÑĸÐ¹Ñģ": 4707,
      "à¤¹à¤®": 4708,
      "ÐŁÐ¾": 4709,
      "Ġused": 4710,
      "ĠÐ±ÑĸÐ»ÑĮÑĪ": 4711,
      "ierno": 4712,
      "Ð½Ð¾ÑģÑĤÐµÐ¹": 4713,
      "eral": 4714,
      "à°Ĥà°µà°¤": 4715,
      "Ãºs": 4716,
      "Ġà°¬à°²": 4717,
      "ĠlÃŃ": 4718,
      "à±įà°®à°ķ": 4719,
      "Ġà¤ĩà¤²": 4720,
      "Ġà¤¯à¤¦": 4721,
      "ĠÐ±ÑĥÐ»Ð°": 4722,
      "ĠÑģÑĤÑĢÐ¾": 4723,
      "à¤ıà¤¸": 4724,
      "ĠÐ¾Ð±Ð»Ð°ÑģÑĤÐ¸": 4725,
      "Ġà°Ĩà°¨": 4726,
      "ÑĪÐµÐ¹": 4727,
      "ĠÐ·Ð°Ð¼": 4728,
      "Ġet": 4729,
      "Ã±a": 4730,
      "à±Ĩà°¤": 4731,
      "king": 4732,
      "ĠÑĥÐ²Ð°": 4733,
      "ĠÑģÐ¾ÑĨÑĸ": 4734,
      "à°ªà°°": 4735,
      "Ð²ÐµÑģÑĤÐ¸": 4736,
      "Ġeduc": 4737,
      "ĠÐ¿ÐµÑĢÐ¸": 4738,
      "Ġlife": 4739,
      "ÑĢÐ¸Ð¹": 4740,
      "ĠÐ¿Ð¾ÑĤÑĢÑĸÐ±Ð½Ð¾": 4741,
      "ÑĤÐ¸ÐºÐ¸": 4742,
      "Ð¾Ð½Ð´": 4743,
      "ĠÑĤÑĸ": 4744,
      "ĠÑĤÑĢÐ°Ð½ÑģÐ¿": 4745,
      "ĠÑĤÐµÐº": 4746,
      "ĠPh": 4747,
      "Ġcult": 4748,
      "Ġtotal": 4749,
      "Ġà¤ķà¤Ń": 4750,
      "ĠÐ¿ÑģÐ¸Ñħ": 4751,
      "ĠÐºÑĥ": 4752,
      "ĠÐ²ÑĤÐ¾ÑĢ": 4753,
      "à¤¾à¤ĩà¤²": 4754,
      "Ð°Ð´Ð¸": 4755,
      "à¥Įà¤ķ": 4756,
      "Ġà°Ĩà°«": 4757,
      "Ġcost": 4758,
      "Ġnatur": 4759,
      "à¥įà¤ł": 4760,
      "ample": 4761,
      "Ġà°Ĩà°¶": 4762,
      "Ð°Ð»ÑĮÐ½Ð¾ÑĹ": 4763,
      "Ġlist": 4764,
      "à±Ĥà°®": 4765,
      "ÑģÑıÑĩ": 4766,
      "à±įà°°à°²": 4767,
      "Ð°Ð»ÑĮÐ½Ð¸Ð¹": 4768,
      "Ġhtt": 4769,
      "ĠÐ²Ð¾Ñģ": 4770,
      "Ġà°Ĭ": 4771,
      "Ġtras": 4772,
      "Ð¼Ð°ÑĶ": 4773,
      "ĠÐ·Ð°ÑģÑĤÐ¾Ñģ": 4774,
      "Ġfollow": 4775,
      "ĠÑįÐº": 4776,
      ",âĢĿ": 4777,
      "ĠÑģÐ¾Ð³": 4778,
      "uso": 4779,
      "à°¾à°ľà°ķ": 4780,
      "Ġà°ĩà°¤à°°": 4781,
      "ÑģÑĤÐ²ÑĥÑİ": 4782,
      "197": 4783,
      "ĠquÃ©": 4784,
      "ÐµÑĢÑĮ": 4785,
      "anos": 4786,
      "à¥ģà¤¬": 4787,
      "ivid": 4788,
      "ĠÑģÐ»ÐµÐ´ÑĥÑİ": 4789,
      "ĠÐ¾Ð½Ð»Ð°Ð¹Ð½": 4790,
      "Ð¾Ð±ÑĢÐ°Ð·": 4791,
      "à¤Ĥà¤ĸ": 4792,
      "Ġenv": 4793,
      "ĠSi": 4794,
      "ĠÐ¾ÑĤÐ²ÐµÑĤ": 4795,
      "iver": 4796,
      "ĠÑĢÐ¾ÑĨÑĸ": 4797,
      "ĠÐŀÑģ": 4798,
      "à¥ĩà¤µà¤²": 4799,
      "ÑģÑĤÐ¾": 4800,
      "Ġtrad": 4801,
      "ĠÑģÐ¿ÑĸÐ²": 4802,
      "ÐºÐ¾Ð²Ð¾": 4803,
      "Ġà°ļà°¦": 4804,
      "ĠÑĤÐµÑĢÐ¸ÑĤÐ¾ÑĢ": 4805,
      "ram": 4806,
      "ĠÐºÐ¾ÑĪ": 4807,
      "ĠÐłÐ¾Ñģ": 4808,
      "ÑĢÑĸÐ¼": 4809,
      "ĠÐ½Ð°Ð¿ÑĢÐ¸": 4810,
      "ĠÑĦÐ¾ÑĢÐ¼": 4811,
      "ÑĤÐµÑĢÐ°": 4812,
      "ĠÑĤÐ¸Ð¼": 4813,
      "**": 4814,
      "Ġpoco": 4815,
      "ÐµÐ»Ñİ": 4816,
      "ology": 4817,
      "Ġeach": 4818,
      "ĠIntern": 4819,
      "Ġfav": 4820,
      "Ġalgo": 4821,
      "ars": 4822,
      "Ð½ÐµÐ½Ð¸Ñı": 4823,
      "Ġwin": 4824,
      "ÑıÐ²Ð»Ñı": 4825,
      "ood": 4826,
      "ÐºÑĤ": 4827,
      "°ĸ": 4828,
      "à°ĸ": 4829,
      "uesto": 4830,
      "Ġamb": 4831,
      "ets": 4832,
      "à¤¦à¤°": 4833,
      "cond": 4834,
      "à°¾.": 4835,
      "Ġà¤µà¤ľ": 4836,
      "ĠÐ¡Ð¨ÐĲ": 4837,
      "Ġsame": 4838,
      "Ġgame": 4839,
      "ÑĥÐ±Ð»Ð¸": 4840,
      "vert": 4841,
      "ĠÐ¼ÐµÐ´Ð¸": 4842,
      "Ġaround": 4843,
      "Ð°Ð³Ð°": 4844,
      "roll": 4845,
      "Ġà¤ĩà¤¸à¤¸": 4846,
      "ĠÑģÐºÐ°": 4847,
      "ĠÐ¿ÑĢÐ¸Ð·": 4848,
      "acter": 4849,
      "ĠÐ¾ÑĤÐºÑĢÑĭ": 4850,
      "ĠÐ²ÑģÐµÐ³Ð´Ð°": 4851,
      "Ġ+": 4852,
      "ĠÑĸÑģÑĤÐ¾ÑĢ": 4853,
      "à°Ĥà°¦à°¨": 4854,
      "ĠpÃºb": 4855,
      "ĠÐ±Ð°Ð·": 4856,
      "ĠÐ¼ÑĸÑģÑĨÐµ": 4857,
      "à±Ĩà°Ĺ": 4858,
      "ÐºÑĸÑģÑĤÑĮ": 4859,
      "à°¾à°²à°¤": 4860,
      "à¥Ĥà¤ģ": 4861,
      "ÑĪÐ»Ð¸": 4862,
      "ÑģÐ¸Ð²": 4863,
      "ĠÐ³ÑĢ": 4864,
      "ÐºÑĥÐ²Ð°Ð½Ð½Ñı": 4865,
      "akes": 4866,
      "à±įà°°à°¯à°¤": 4867,
      "acion": 4868,
      "Ġmal": 4869,
      "ween": 4870,
      "Ð¾Ð²Ð°Ð½Ð¸Ð¹": 4871,
      "ĠÐ¼ÐµÑģÑı": 4872,
      "Ġtend": 4873,
      "Ġche": 4874,
      "cen": 4875,
      "ĠÐ²Ð¾ÑģÐ¿": 4876,
      "Ð²Ð°ÑĤ": 4877,
      "ĠÐºÑĢÐ¾Ð²": 4878,
      "enef": 4879,
      "à±ĩ..": 4880,
      "ĠÐ¼Ð¾Ð¼ÐµÐ½ÑĤ": 4881,
      "Ġbro": 4882,
      "ĠÑįÑĤÐ°": 4883,
      "Ð½Ð¾Ñģ": 4884,
      "Ġfut": 4885,
      "ÑıÑĤÑģÑı": 4886,
      "ÃŃst": 4887,
      "Al": 4888,
      "Ð¾ÑģÐ¿Ð¾Ð´": 4889,
      "ÑĩÐ¸Ñħ": 4890,
      "à±įà°¨à°ª": 4891,
      "Ð¾Ð»Ð¾Ð³Ð¸ÑĩÐµÑģ": 4892,
      "Ġà¤¬à¤¦à¤²": 4893,
      "Ġobjet": 4894,
      "à°¾à°²à°¯": 4895,
      "à±ĭà°§": 4896,
      "ĠUS": 4897,
      "Ð¾Ð»Ð¾Ð³ÑĸÑĩ": 4898,
      "Ġfound": 4899,
      "Ã³g": 4900,
      "ĠÑĢÐ°Ð·Ð»Ð¸Ñĩ": 4901,
      "Ġtodas": 4902,
      "Ġoc": 4903,
      "ĠÑĨÐµÐ½": 4904,
      "This": 4905,
      "ÐµÐ¼Ð¾": 4906,
      "Ð¾Ð±Ñĸ": 4907,
      "ution": 4908,
      "à¤¾à¤¯à¤ķ": 4909,
      "Ġà°ĩà°¸": 4910,
      "à±Ĭà°¦à°²": 4911,
      "ĠtravÃ©s": 4912,
      "Ġesto": 4913,
      "ÑħÐ¾Ð´Ñı": 4914,
      "ĠÐĶÐ°": 4915,
      "earch": 4916,
      "Ġsupport": 4917,
      "Ġofre": 4918,
      "ĠÐ±Ð¾ÑĢ": 4919,
      "Ð¼Ð°Ð½": 4920,
      "ĠÐºÐ»Ñĸ": 4921,
      "ĠÑĨÐµÐ¹": 4922,
      "ĠÐ¼ÐµÑĤÐ¾Ð´": 4923,
      "Ġchild": 4924,
      "ĠÐ¿ÐµÑĢÐµÐ´Ð°": 4925,
      "-s": 4926,
      "Ġtipo": 4927,
      "Ð¾Ð»ÐµÐ²Ð°": 4928,
      "Ġdere": 4929,
      "Ġmant": 4930,
      "ĠÐŁÐ¾Ñģ": 4931,
      "tar": 4932,
      "ĠÐ¿ÑĢÐ¸Ð´": 4933,
      "Ġvide": 4934,
      "ĠÐ¿Ð¾ÑĤÑĢÐµÐ±": 4935,
      "Ð½ÑĸÐ¼": 4936,
      "arm": 4937,
      "ĠÑĢÐ¸Ñģ": 4938,
      "Ġà¤¸à¤«": 4939,
      "ÑĤÐ¾Ñĩ": 4940,
      "Ġmujer": 4941,
      "ÑģÑıÑĤ": 4942,
      "ÑĢÐ¾ÑĤ": 4943,
      "Ġpoder": 4944,
      "uss": 4945,
      "ased": 4946,
      "Ð½Ð¸Ð·": 4947,
      "ĠÐ¿Ð°ÑĢÐ°": 4948,
      "unity": 4949,
      "ele": 4950,
      "come": 4951,
      "Ġtrat": 4952,
      "à¥ģà¤Ł": 4953,
      "ĠÐ½Ð°Ð³": 4954,
      "ĠÐ©": 4955,
      "ĠÐ¸Ð¼ÐµÐµÑĤ": 4956,
      "chos": 4957,
      "ĠÐ´ÑĢÑĥÐ³Ð¸Ñħ": 4958,
      "ÑĭÐ²Ð°ÑİÑĤ": 4959,
      "ĠÐ½Ð¾Ð¼": 4960,
      "à±Ĭà°ª": 4961,
      "Ð»ÐµÐºÑģÐ°Ð½Ð´": 4962,
      "It": 4963,
      "ÑĢÐ¸Ð²Ð°": 4964,
      "à¥ģà¤ªà¤¯": 4965,
      "ÑĤÐµÐ³": 4966,
      "Ð»Ð¸ÑĩÐ¸": 4967,
      "'Ñı": 4968,
      "iol": 4969,
      "à°¾à°µà°¡": 4970,
      "Ġboth": 4971,
      "Ġantes": 4972,
      "ĠAm": 4973,
      "Ġdesign": 4974,
      "Ġorganiz": 4975,
      "els": 4976,
      "Ð±ÑĢÑı": 4977,
      "eno": 4978,
      "ÑĪÐ¸Ð¼Ð¸": 4979,
      "Ġbook": 4980,
      "ĠÐ·Ð°Ð²Ð´": 4981,
      "ÑĥÑĢÐ½": 4982,
      "iving": 4983,
      "ats": 4984,
      "ÑĨÑĸÐ¾Ð½Ð°Ð»ÑĮ": 4985,
      "ures": 4986,
      "ĠÐ¿Ð°ÑĤ": 4987,
      "à°¾à°Ń": 4988,
      "Ð½Ð°Ñĩ": 4989,
      "Ġà¤ķà¤°à¤ķ": 4990,
      "ĠÐµÐºÐ¾Ð½Ð¾Ð¼": 4991,
      "Ġà¤ªà¤ķ": 4992,
      "Ð±Ñĸ": 4993,
      "à¥ģà¤°à¤ķ": 4994,
      "ÐºÐ¾ÑĢ": 4995,
      "Ġdoc": 4996,
      "Ġtienen": 4997,
      "wh": 4998,
      "Ġpel": 4999,
      "Ġadv": 5000,
      "ature": 5001,
      "ĠRes": 5002,
      "ĠOn": 5003,
      "ĠÑģÐºÐ¾ÑĢ": 5004,
      "Ð¿Ð¾": 5005,
      "Ġproyect": 5006,
      "ĠÑĩÐµÐ»Ð¾Ð²ÐµÐºÐ°": 5007,
      "36": 5008,
      "ĠÐ¿Ð¾Ð´Ð°": 5009,
      "bor": 5010,
      "ister": 5011,
      "terior": 5012,
      "No": 5013,
      "ral": 5014,
      "Ð½Ð¸ÐºÐ°Ð¼Ð¸": 5015,
      "Ġtoo": 5016,
      "Ġpop": 5017,
      "ĠÐ¸ÑģÐ¿Ð¾Ð»ÑĮÐ·Ñĥ": 5018,
      "ĠBl": 5019,
      "ĠRo": 5020,
      "ĠÑģÐ²ÑĸÑĤ": 5021,
      "à±ĩà°Ĺ": 5022,
      "ĠÑĢÐ¾Ð·Ð²Ð¸ÑĤÐºÑĥ": 5023,
      "Ġà¤®à¤¦à¤¦": 5024,
      "à°Ĥà°¶": 5025,
      "Ð¸ÑĤÐµÐ»ÐµÐ¹": 5026,
      "Ġcare": 5027,
      "ÑģÐ¿ÐµÐº": 5028,
      "ĠÐ½Ð°ÑĢÑĥ": 5029,
      "ash": 5030,
      "ĠÐľÐ¾ÑģÐº": 5031,
      "Ġesper": 5032,
      "ĠÑģÐ¿ÐµÑĨÑĸ": 5033,
      "ĠÑĢÐµÐ±ÐµÐ½": 5034,
      "Ð½ÑĸÑĩ": 5035,
      "Ġrespons": 5036,
      "ĠÐ¾Ð±Ð»Ð°ÑģÑĤÑĸ": 5037,
      "ives": 5038,
      "Ġà¤ħà¤¤": 5039,
      "Ġà°ıà°¡": 5040,
      "à¥įà¤Ń": 5041,
      "ĠÑĢÐ¾Ð·Ð¼Ñĸ": 5042,
      "Por": 5043,
      "ĠÑħÐ¾ÑĢÐ¾ÑĪ": 5044,
      "Ġestar": 5045,
      "igo": 5046,
      "ĠÐ§ÐµÑĢ": 5047,
      "Ġrecord": 5048,
      "Ð°Ð¹ÑĤÐµ": 5049,
      "ĠÐ¿ÑĢÐµÐ´Ð¿ÑĢÐ¸": 5050,
      "ĠÐ½Ð°Ñĥ": 5051,
      "Ġà¤ħà¤²à¤Ĺ": 5052,
      "ĠÐºÐ¾Ð½ÐºÑĥÑĢ": 5053,
      "ĠÐ´Ð¸ÑĤÐ¸": 5054,
      "à¥īà¤¨": 5055,
      "ĠÐºÐ¾Ð¼Ð¿Ð°Ð½": 5056,
      "ĠÐ°Ð½ÑĤÐ¸": 5057,
      "ying": 5058,
      "Ð»Ñĭ": 5059,
      "ÐŀÐ±": 5060,
      "à¥ĩà¤ĸà¤¨": 5061,
      "Ġbetween": 5062,
      "ĠMed": 5063,
      "gos": 5064,
      "Ġà°¦à°Ĺ": 5065,
      "ĠÑģÐ»Ð¾Ð¶": 5066,
      "'ÑĶ": 5067,
      "Ð¾ÑĢÑĥ": 5068,
      "à¤Ĥà¤¤à¤°": 5069,
      "Ġnuevo": 5070,
      "ĠÑģÐ¾Ð²ÐµÑĢ": 5071,
      "let": 5072,
      "orth": 5073,
      "Ġprofes": 5074,
      "ĠÐ½Ð°ÑģÑĤÑĥÐ¿": 5075,
      "ĠÑĢÐ°Ð´": 5076,
      "ĠÐ²Ð¸ÑĢÑĸ": 5077,
      "ĠdespuÃ©s": 5078,
      "à¤¿à¤¤à¤¨": 5079,
      "ĠÐ¸Ð·Ð¼ÐµÐ½": 5080,
      "ĠÐ·Ð°ÑıÐ²Ð¸": 5081,
      "Ġbusiness": 5082,
      "Ġà°İà°®": 5083,
      "AC": 5084,
      "ĠÐĺÐ½": 5085,
      "Ġatt": 5086,
      "ĠÐ½ÐµÐ¹": 5087,
      "ĠÐĴÑģÐµ": 5088,
      "ID": 5089,
      "Ġ--": 5090,
      "ĠBe": 5091,
      "Ġpot": 5092,
      "Ð½ÐµÐ³Ð¾": 5093,
      "ĠÐ¸ÑģÐº": 5094,
      "Ġrep": 5095,
      "ĠÐ½ÐµÐ³Ð¾": 5096,
      "ĠÐºÐ²Ð°ÑĢÑĤÐ¸": 5097,
      "ĠÐ´ÐµÑıÑĤÐµÐ»ÑĮ": 5098,
      "ĠÑĤÐµÐ»ÐµÑĦ": 5099,
      "abor": 5100,
      "Ġà¤ªà¤¦": 5101,
      "ĠÑĪÐ²Ð¸Ð´": 5102,
      "Ġgot": 5103,
      "ÐķÑģÐ»Ð¸": 5104,
      "ĠÐºÑĢÐµÐ´Ð¸ÑĤ": 5105,
      "ĠÐ½ÑĸÐ¶": 5106,
      "Ġà¤Ĩà¤ı": 5107,
      "ody": 5108,
      "Ð¶Ð´Ð¸": 5109,
      "ÑĢÐ¾Ð¼Ðµ": 5110,
      "Ð±ÑĥÑĤ": 5111,
      "Ð¾Ð½Ð¾Ð²": 5112,
      "ron": 5113,
      "ĠÑģÑĤÑĥÐ´": 5114,
      "ument": 5115,
      "ĠÐŁÐ¾Ð´": 5116,
      "Ġda": 5117,
      "arly": 5118,
      "ĠÐ±ÑİÐ´Ð¶": 5119,
      ".âĢĿĊ": 5120,
      "ĠÐ²ÑĢÐµÐ¼ÐµÐ½Ð¸": 5121,
      "As": 5122,
      "à¤¾à¤ľà¤¨": 5123,
      "à¥Ģ-": 5124,
      "ĠÐļÐ°": 5125,
      "ving": 5126,
      "Ð»ÑĥÐ±": 5127,
      "ĠÐµÐ¼Ñĥ": 5128,
      "ĠÐ²Ð¾Ð»": 5129,
      "Ð¼ÑĸÐ½Ñĸ": 5130,
      "Ð¾Ð»Ð¾Ð¶": 5131,
      "ĠsÃ³lo": 5132,
      "Ð¸Ð½ÐºÑĥ": 5133,
      "ness": 5134,
      "ivel": 5135,
      "ĠAll": 5136,
      "Ġhecho": 5137,
      "à¤¾à¤¨à¤¤": 5138,
      "ĠÐ¿ÑĢÐµÐ·Ð¸Ð´": 5139,
      "Ð¾Ð²Ð¸ÑĤÑĮ": 5140,
      "Ġinvestig": 5141,
      "à±Īà°¸": 5142,
      "paÃ±a": 5143,
      "til": 5144,
      "ĠÑģÐ°Ð¼Ðµ": 5145,
      "Ġparticip": 5146,
      "ĠÐ¾Ð±Ñĭ": 5147,
      "----": 5148,
      "Ġpal": 5149,
      "ĠÑģÐ¸Ð»": 5150,
      "Ġfew": 5151,
      "à±įà°ŀ": 5152,
      "à±įà°Ĺà°°": 5153,
      "ock": 5154,
      "Re": 5155,
      "Ġdom": 5156,
      "org": 5157,
      "ĠThey": 5158,
      "ÑģÐºÐ°": 5159,
      "Ġotras": 5160,
      "ĠÐ¿Ð¸ÑĤÐ°Ð½Ð½Ñı": 5161,
      "300": 5162,
      "ĠÐ¼Ð°ÑİÑĤÑĮ": 5163,
      "ÑĭÐ²Ð°ÐµÑĤÑģÑı": 5164,
      "ĠÐ¿Ð¾ÑģÐ»Ñĥ": 5165,
      "Ġà°ľà°Ĺà°¨": 5166,
      "ĠÐ²ÑĭÐ¿": 5167,
      "Ġprimer": 5168,
      "Ġtres": 5169,
      "Ð°ÑĤÐµÐ»Ñı": 5170,
      "Ġdise": 5171,
      "Ð´ÐµÑĤ": 5172,
      "ĠÐ¿Ð¾Ð²ÐµÑĢÑħ": 5173,
      "Ġtop": 5174,
      "ÑĤÐ¸Ðµ": 5175,
      "Ġcompet": 5176,
      "ĠÐ»Ð¸ÑĨ": 5177,
      "Ð¸ÑĢÐ°": 5178,
      "ĠhabÃŃa": 5179,
      "ĠÐ·Ð°Ð±ÐµÐ·Ð¿ÐµÑĩ": 5180,
      "Ġenc": 5181,
      "ativa": 5182,
      "ĠÃ": 5183,
      "ĠÑĢÐ°ÑģÑĤ": 5184,
      "Ġà°¨à°¡": 5185,
      "ogle": 5186,
      "à¥Ĥà¤°à¤¤": 5187,
      "Ġhapp": 5188,
      "ware": 5189,
      "ĠÐ°Ð±": 5190,
      "ĠÐ¿Ð¾Ð·Ð²Ð¾Ð»Ñı": 5191,
      "ĠÐºÐ¾Ð¼Ð¿Ð°Ð½Ð¸Ð¸": 5192,
      "Ġpare": 5193,
      "à±Ģà°²à°ķ": 5194,
      "ĠÑıÐ²Ð»Ñı": 5195,
      "ĠSan": 5196,
      "Ġ#": 5197,
      "ĠÐľÑĸ": 5198,
      "à¥ģà¤Ń": 5199,
      "à±Īà°¦": 5200,
      "Ġlet": 5201,
      "à¥įà¤°à¤§": 5202,
      "ÐµÐ·Ð´": 5203,
      "ĠÑĤÐµÐ¼Ð¿ÐµÑĢÐ°": 5204,
      "Ð¾Ð²Ð°Ñı": 5205,
      "ĠÐĴÐ°Ñģ": 5206,
      "ined": 5207,
      "à°µà°²": 5208,
      "à¤¾à¤¯à¤¦": 5209,
      "ĠÐ´ÐµÐ²": 5210,
      "ÑĳÑĤ": 5211,
      "Ð¾Ð»Ð½Ð¸ÑĤÐµÐ»ÑĮ": 5212,
      "inas": 5213,
      "ÐµÐ´Ð¸": 5214,
      "ĠÐ²ÑģÑĤÑĢÐµ": 5215,
      "ĠÐ²Ð°ÑĢÐ¸": 5216,
      "Ġcomb": 5217,
      "Ġà°Ĩà°¡": 5218,
      "Ð¾ÑıÐ½": 5219,
      "ĠdÃŃas": 5220,
      "Ġviv": 5221,
      "à±įà°¥à°²": 5222,
      "ĠÐ´Ð¾Ð³Ð¾Ð²Ð¾ÑĢ": 5223,
      "ÑĨÑĸÐ¾Ð½": 5224,
      "Ð»Ð¸Ð²ÑĸÑģÑĤÑĮ": 5225,
      "ĠDE": 5226,
      "ÑģÑĮÐºÑĸÐ¹": 5227,
      "Ġotra": 5228,
      "ĠÐ°Ð²ÑĤ": 5229,
      "Ġcamb": 5230,
      "ĠÑĢÐµÐ¶Ð¸Ð¼": 5231,
      "à°¿à°£": 5232,
      "ĠMay": 5233,
      "Ġà°¬à°¯à°Ł": 5234,
      "Ġtar": 5235,
      "ĠÑģÐ²Ð¾ÐµÐ¹": 5236,
      "tos": 5237,
      "ÐµÐ¼Ð°": 5238,
      "reg": 5239,
      "the": 5240,
      "ĠÐ¿ÑĢÐµÐº": 5241,
      "à¥Ĥà¤¸": 5242,
      "Ġlittle": 5243,
      "ĠÐ¿ÑĢÐ¸ÑĩÐ¸": 5244,
      "Ġà¤¬à¤¸": 5245,
      "ĠÑģÑĥÐ±": 5246,
      "oto": 5247,
      "Ð»Ð°Ð´Ð¸": 5248,
      "Ġput": 5249,
      "à±ĩà°ķà°ª": 5250,
      "Ġresp": 5251,
      "ways": 5252,
      "Ð¾Ð²Ð¾ÑĹ": 5253,
      "eta": 5254,
      "à°Ĥà°Łà°°": 5255,
      "Ð°Ð½Ñĭ": 5256,
      "ĠÐ²Ð½Ð¸Ð¼Ð°": 5257,
      "Ã¡ct": 5258,
      "ĠÐ¿ÑĢÑıÐ¼": 5259,
      "Ġbenef": 5260,
      "ÑĩÐµÐ¼": 5261,
      "à±įà°ªà°¤": 5262,
      "Ġmat": 5263,
      "ĠÐ·Ð½Ð°Ð¹": 5264,
      "Ġschool": 5265,
      "Ġlot": 5266,
      "ĠÐ¼Ð°ÑĤÐµÑĢÐ¸Ð°Ð»": 5267,
      "omb": 5268,
      "uc": 5269,
      "ĠÐ¡Ð°Ð¼": 5270,
      "Ð¼Ð°Ð³Ð°": 5271,
      "ĠÐ¯ÐºÑīÐ¾": 5272,
      "Ð½ÑĥÐ²": 5273,
      "ÑĤÐ¸Ð¹": 5274,
      "ÐºÐ¾Ð½Ð°": 5275,
      "ÑĪÐºÐ¸": 5276,
      "ÑģÑĮÐºÐ¾Ð¼Ñĥ": 5277,
      "à±Ĥà°ľ": 5278,
      "Ġà¤²à¤Ĺà¤¤": 5279,
      "à±įà°İ": 5280,
      "ĠBar": 5281,
      "ĠFran": 5282,
      "ically": 5283,
      "Ġà¤¸à¤¤": 5284,
      "ĠÑĥÑģÐ»Ñĥ": 5285,
      "ĠMon": 5286,
      "Ġmarket": 5287,
      "à±įà°°à°¬": 5288,
      "Ġà¤ĩà¤¤à¤¨": 5289,
      "Ð¾ÑĢÐ¾Ð¶": 5290,
      "ĠÐ³Ð¾ÑĤ": 5291,
      "à°¿à°Ń": 5292,
      "ÑĪÐ¾Ð³Ð¾": 5293,
      "Ġellos": 5294,
      "iene": 5295,
      "ĠÐ±Ð¾": 5296,
      "ĠÐ¿Ð°Ñģ": 5297,
      "Ð»Ð¾Ð¿": 5298,
      "ÑİÑīÐ¸Ð¹": 5299,
      "Ġdisc": 5300,
      "ÑĢÑĸÑĩ": 5301,
      "à±ĩà°µà°²": 5302,
      "Es": 5303,
      "ĠÐ°Ð²ÑĤÐ¾ÑĢ": 5304,
      "ĠÑģÐ¾ÑģÑĤÐ°Ð²": 5305,
      "AD": 5306,
      "Ġà¤ĩà¤¸à¤®": 5307,
      "ĠÐ¶ÐµÐ»": 5308,
      "Ġpens": 5309,
      ".S": 5310,
      "ÑĥÐ³": 5311,
      "Ġinte": 5312,
      "ĠÑĦÑĸÐ½": 5313,
      "itos": 5314,
      "ize": 5315,
      "ĠÐ½Ð¾ÑĢÐ¼": 5316,
      "à¥įà¤¯à¤µà¤¸": 5317,
      "Ġpriv": 5318,
      "ĠÑģÑĤÐ¾Ð¸ÑĤ": 5319,
      "ĠÐ¿ÑĢÐ¾Ð¸Ñģ": 5320,
      "Ġà°ıà°¦": 5321,
      "ÑĥÑİÑĩÐ¸": 5322,
      "ĠÑģÑĤÑĢÑĥÐº": 5323,
      "ĠÐ½ÑĮ": 5324,
      "ĠCent": 5325,
      "à±įà°Łà°®": 5326,
      "ĠÐ³ÐµÑĢ": 5327,
      "ĠÐ²ÑģÐµÐ¼": 5328,
      "iciones": 5329,
      "à¤¿à¤Ľà¤²": 5330,
      "Ġmonth": 5331,
      "ĠÑĢÑıÐ´": 5332,
      "ĠÐ¿ÐµÑĢÐµÐº": 5333,
      "ĠÑĥÐ¿ÑĢÐ°Ð²Ð»": 5334,
      "ĠÐ»Ð¸Ñĩ": 5335,
      "Ġtest": 5336,
      "quÃŃ": 5337,
      "ĠÑĸÐ´": 5338,
      "ĠÐ¾ÐºÐ°Ð·": 5339,
      "Ġprimera": 5340,
      "ÐµÑĢÑĤ": 5341,
      "ĠÐ¸Ð¼ÐµÐ½Ð½Ð¾": 5342,
      "ĠÐ²Ð½ÑĥÑĤ": 5343,
      "Ġfal": 5344,
      "Ġgrup": 5345,
      "ĠÑĢÑĸÑĪÐµÐ½Ð½Ñı": 5346,
      "Ġsigu": 5347,
      "ĠÐĴÑĸÐ½": 5348,
      "-Ð·Ð°": 5349,
      "Ð©": 5350,
      "Ġpermit": 5351,
      "ÑģÑĤÐ²Ðµ": 5352,
      "Ġvers": 5353,
      "ogra": 5354,
      "ÑĨÑĸÑĶÑİ": 5355,
      "rib": 5356,
      "inos": 5357,
      "rar": 5358,
      "ÑĤÑĥÑĢÑĭ": 5359,
      "ĠÑįÐºÐ¾Ð½Ð¾Ð¼": 5360,
      "ists": 5361,
      "ÑĢÐ°Ð¼": 5362,
      "Ġà¤®à¤¤": 5363,
      "ĠTo": 5364,
      "Ġset": 5365,
      "Ð¾ÑģÑģÐ¸Ð¹": 5366,
      "Ġà¤¸à¤¦": 5367,
      "99": 5368,
      "ĠÐ½Ð¸Ð¼": 5369,
      "ĠÐºÐ¾Ð¼Ð°Ð½": 5370,
      "ĠMe": 5371,
      "Ġà¤Ĩà¤µà¤¶": 5372,
      "Ð³Ðµ": 5373,
      "ĠInst": 5374,
      "à¤¹à¤¤": 5375,
      "ĠPol": 5376,
      "Ġesa": 5377,
      "ÐĿÐµ": 5378,
      "Ġà°ĩà°Ł": 5379,
      "ĠÐ²ÑĸÐ´Ð¾Ð¼": 5380,
      "ÐºÐ°Ð·Ð°ÑĤÑĮ": 5381,
      "Ð½Ð¾Ð·": 5382,
      "rÃ¡": 5383,
      "Ġvisit": 5384,
      "ired": 5385,
      "ĠEuro": 5386,
      "Se": 5387,
      "ÑĢÑİ": 5388,
      "Ð°ÑĤÐ¾ÑĩÐ½Ð¾": 5389,
      "à±Īà°µ": 5390,
      "-Ñģ": 5391,
      "ĠÑģÐ´ÐµÐ»Ð°ÑĤÑĮ": 5392,
      "Ġrecom": 5393,
      "Ġdebe": 5394,
      "ants": 5395,
      "à¤¿à¤«": 5396,
      "ĠÑĢÐµÐ´": 5397,
      "ĠÑĤÐµÐ»": 5398,
      "Ð¿Ñĸ": 5399,
      "ĠNews": 5400,
      "ĠÑģÐ»ÑĸÐ´": 5401,
      "Ð½Ð¸ÑĤÐ¸": 5402,
      "à¤®à¤¤": 5403,
      "ĠÐ´Ð¾ÑģÐ»ÑĸÐ´": 5404,
      "ĠÑĩÐ¾Ð»Ð¾Ð²": 5405,
      "ĠÐ½Ð°ÑģÐµÐ»": 5406,
      "à±Īà°¦à°°": 5407,
      "Ġminut": 5408,
      "Ġefect": 5409,
      "ĠÑĨÐµÐ»": 5410,
      "Ġsino": 5411,
      "ĠÐ¿ÑĢÐ¾ÑĨÐµÐ´": 5412,
      "Ġplace": 5413,
      "75": 5414,
      "Ġconoci": 5415,
      "wit": 5416,
      "ĠÐ´ÑĸÑĤÐµÐ¹": 5417,
      "ĠÐ·Ð¾Ð²": 5418,
      "crip": 5419,
      "Ð¸ÐºÐ¸": 5420,
      "ÑĥÐ¼Ñĸ": 5421,
      "Ġdecir": 5422,
      "Ġcome": 5423,
      "Ġaque": 5424,
      "ĠÐ·Ð°ÑħÐ¾Ð´": 5425,
      "ÑģÐ»ÑĸÐ´": 5426,
      "ÐµÑĢÐµÐ¶": 5427,
      "ÐµÐ½ÑĤÑĸÐ²": 5428,
      "ĠÐºÐ¾ÑĢÐ¸ÑģÑĤ": 5429,
      "ĠÐ¿Ð¾Ð´Ð¾Ð±": 5430,
      "Ġaplic": 5431,
      "je": 5432,
      "ĠÐºÐ¾Ð½Ñģ": 5433,
      "Ġcaus": 5434,
      "à±įà°¯à°µà°¸": 5435,
      "ÑĢÐ¾Ð²Ð°Ð½Ð¸Ñı": 5436,
      "zas": 5437,
      "ĠÐ¶ÐµÐ»Ð°": 5438,
      "ÃŃo": 5439,
      "à±Ĩà°®": 5440,
      "ĠÑģÑĢÐ¾Ðº": 5441,
      "Ġahora": 5442,
      "Ġnivel": 5443,
      "ĠLas": 5444,
      "icular": 5445,
      "Ġopen": 5446,
      "Ð°Ð½Ð½ÑıÐ¼": 5447,
      "row": 5448,
      "33": 5449,
      "ÐµÐ½Ð½ÑĭÐµ": 5450,
      "irt": 5451,
      "Ġexpl": 5452,
      "Ð»Ð¸Ñı": 5453,
      "ĠÐ¼Ñĥ": 5454,
      "ĠÐ·Ð°Ð±Ð¾Ð»ÐµÐ²Ð°": 5455,
      "ago": 5456,
      "Ġà¤°à¤¹à¤¨": 5457,
      "à¤¾à¤²à¤¨": 5458,
      "ĠÐ¿ÑĢÐµÑģ": 5459,
      "ĠÐ²Ð¸ÑģÐ¾Ðº": 5460,
      "ĠÐ¿Ð¾Ð»Ð¸": 5461,
      "ĠÐ½Ð°ÑĢ": 5462,
      "ĠÐ±ÑĢÐ°": 5463,
      "Ð¾ÑĦ": 5464,
      "Ġrepresent": 5465,
      "ining": 5466,
      "ĠÑħÑĤÐ¾": 5467,
      "anta": 5468,
      "ientras": 5469,
      "Ð¸ÑģÐ°": 5470,
      "Ġestas": 5471,
      "ĠÐ£ÐºÑĢÐ°": 5472,
      "gg": 5473,
      "ĠÑĤÐ°ÐºÐ¾Ð¹": 5474,
      "son": 5475,
      "press": 5476,
      "196": 5477,
      "ĠÐ»ÑĥÑĩÑĪÐµ": 5478,
      "à°¤à°¨": 5479,
      "raciÃ³n": 5480,
      "ides": 5481,
      "ĠÐ¼Ð°Ð³Ð°": 5482,
      "thing": 5483,
      "Ġvia": 5484,
      "ĠÐ²ÑĭÑģ": 5485,
      "ÑĤÐ°Ñħ": 5486,
      "ĠÐ¿Ð¾ÑįÑĤÐ¾Ð¼Ñĥ": 5487,
      "Ġcle": 5488,
      "ĠÐ²ÑģÑĸÑħ": 5489,
      "Ð°Ð»Ð¸Ð·": 5490,
      "à±ĩà°¹": 5491,
      "Ġiss": 5492,
      "ety": 5493,
      "à±Ĥ,": 5494,
      "ĠCan": 5495,
      "Ġduring": 5496,
      "ĠÐ´ÑĥÐ¼": 5497,
      "ĠÑģÐ¾ÑĨÐ¸": 5498,
      "Ġembar": 5499,
      "Ð½ÑĥÐ»": 5500,
      "ÑĸÑħ": 5501,
      "Ð»Ð°ÑģÑı": 5502,
      "à¥Ĥà¤¬": 5503,
      "Ð¾Ð²Ð¸Ñĩ": 5504,
      "Ġà¤¸à¤®à¤¸": 5505,
      "à±įà°°à°ķà°Ł": 5506,
      "Ð²Ð¾Ñİ": 5507,
      "Ð²Ñĥ": 5508,
      "ÑģÐ¸Ð¸": 5509,
      "Ð¶Ð¸Ð²Ð°": 5510,
      "ĠÑĤÐ¾Ð¹": 5511,
      "Ġcir": 5512,
      "Ġbig": 5513,
      "ĠÐ²ÑĸÐ´Ð±Ñĥ": 5514,
      "ÐµÑģÑĤÐ²Ðµ": 5515,
      "Ġwon": 5516,
      "Ð²ÑĢÐ¾Ð¿ÐµÐ¹": 5517,
      "ĠÑĤÐ¾Ð²Ð°": 5518,
      "à¥Īà¤ļ": 5519,
      "Ġà¤®à¤°": 5520,
      "à°Ĥà°ĺ": 5521,
      "ĠÐ¶ÑĥÑĢÐ½": 5522,
      "Ð±Ð»Ð¸": 5523,
      "ye": 5524,
      "ural": 5525,
      "¤ĵ": 5526,
      "Ð»ÐµÐºÑĤÑĢÐ¾Ð½": 5527,
      "emplo": 5528,
      "à¤ĵ": 5529,
      "Ð¾Ð¿ÑĢÐ¸": 5530,
      "ĠÑģÐ¾ÑĤÑĢÑĥÐ´": 5531,
      "ĠÐ³ÑĢÐ½": 5532,
      "Ġquest": 5533,
      "Ð´Ð°Ð½": 5534,
      "ÐŀÑĤ": 5535,
      "ĠÐ¿ÑĢÐ¾ÑĪ": 5536,
      "Ġident": 5537,
      "yn": 5538,
      "Ġdecis": 5539,
      "Ġ.Ċ": 5540,
      "à¥ģà¤Ĺ": 5541,
      "ĠÐ´ÑĥÑħ": 5542,
      "ĠÐ²Ð¾ÑĤ": 5543,
      "ÐĻ": 5544,
      "Ġimportante": 5545,
      "Ġtem": 5546,
      "of": 5547,
      "ĠÐ¿ÑĢÐµÐ´Ð¾ÑģÑĤ": 5548,
      "Ġthings": 5549,
      "ĠAp": 5550,
      "Ġpeque": 5551,
      "Ġlleg": 5552,
      "Ġconsum": 5553,
      "à¤¾à¤¸à¤¨": 5554,
      "Ġpass": 5555,
      "Ġnext": 5556,
      "Ð¾Ð³ÑĢÐ°ÑĦ": 5557,
      "ÐºÐ¾Ð²Ñĸ": 5558,
      "à¥Įà¤ľ": 5559,
      "Ġfree": 5560,
      "ĠÑģÑĦ": 5561,
      "ÑĢÑĥÐ·": 5562,
      "ÐºÐ¾Ð²Ð°": 5563,
      "Ġsk": 5564,
      "oles": 5565,
      "ĠÑĩÐ»ÐµÐ½": 5566,
      "ĠÐ½ÐµÐºÐ¾ÑĤÐ¾ÑĢ": 5567,
      "Ġagainst": 5568,
      "Ġing": 5569,
      "Ġà¤ĳà¤«": 5570,
      "Ð»Ð°Ð³Ð°": 5571,
      "ĠÐ½Ð°Ð¿ÑĢÑı": 5572,
      "Ġcorre": 5573,
      "Ġunos": 5574,
      "ĠÐ¼Ð°ÐºÑģÐ¸Ð¼": 5575,
      "ÐºÐ¾Ð²Ð¾Ð´": 5576,
      "Com": 5577,
      "Ġespe": 5578,
      "Ġindustr": 5579,
      "ross": 5580,
      "Ã³r": 5581,
      "ÑĢÑĥÐ¶": 5582,
      "ĠÐµÐº": 5583,
      "Ġgrand": 5584,
      "ĠÑģÑĤÐ¾ÑĢ": 5585,
      "Ð¾ÑģÑĤÐµÐ¹": 5586,
      "ĠÑĩÐ¸ÑģÑĤ": 5587,
      "ailable": 5588,
      "uras": 5589,
      "ĠÐ½Ð¾Ñģ": 5590,
      "Ð²Ð¸Ñĩ": 5591,
      "à±Ģà°ķà°°": 5592,
      "ĠÐ¡Ð¿": 5593,
      "Ġrece": 5594,
      "ĠÐ·Ð°Ð²Ð¶Ð´Ð¸": 5595,
      "Ġcontact": 5596,
      "Ġenerg": 5597,
      "ped": 5598,
      "Ġopt": 5599,
      "Ġpap": 5600,
      "à±Įà°Ĥ": 5601,
      "ĠÑģÐ¾Ð»": 5602,
      "Ġà¥¤Ċ": 5603,
      "Ġà°ķà°Ł": 5604,
      "ÑĩÐµÑĤ": 5605,
      "Ġanother": 5606,
      "Ð»ÐµÐ½Ð¸Ð¹": 5607,
      "ĠÑģÐ»ÐµÐ´ÑĥÐµÑĤ": 5608,
      "ĠÐĲÑĢ": 5609,
      "Ð°Ð»Ð¾Ð³": 5610,
      "uesta": 5611,
      "ÑĨÐ¸ÐµÐ¹": 5612,
      "duct": 5613,
      "Ġred": 5614,
      "à¤¾à¤µà¤¨": 5615,
      "32": 5616,
      "ÑĢÑĥÑĩ": 5617,
      "ley": 5618,
      "Ð¸Ð·Ð½ÐµÑģ": 5619,
      "ĠÐ´ÐµÑĤÐµÐ¹": 5620,
      "01": 5621,
      "Ġrespect": 5622,
      "Ð¾Ð»ÐµÐµ": 5623,
      "ĠÑĪÐ¸ÑĢÐ¾Ðº": 5624,
      "ism": 5625,
      "ED": 5626,
      "ique": 5627,
      "ÑĥÐ±Ð»Ñĸ": 5628,
      "ÑĪÐ°Ñı": 5629,
      "194": 5630,
      "ÑĤÐµÑģÑĮ": 5631,
      "ĠÐ¿ÑĢÐ¾Ð´Ð¾Ð»": 5632,
      "Ð¸Ð¿": 5633,
      "Ġrem": 5634,
      "ĠÐ¸Ð·Ð²ÐµÑģÑĤ": 5635,
      "Ġestado": 5636,
      "Â»Ċ": 5637,
      "eb": 5638,
      "Ġsistema": 5639,
      "ention": 5640,
      "à¥ĭ,": 5641,
      "Ð²Ð¾ÑĢÑİ": 5642,
      "bal": 5643,
      "à¤¾à¤ľà¤ª": 5644,
      "Ġgan": 5645,
      "Ġgroup": 5646,
      "Ġà¤¸à¤ļ": 5647,
      "ÑĪÐµÐ³Ð¾": 5648,
      "ÑģÑĤÐ¸ÑĤÑĥ": 5649,
      "ohn": 5650,
      "ÐµÑĢÐ±": 5651,
      "Ð»Ð¾Ð³": 5652,
      "ĠGu": 5653,
      "ĠÐ»ÐµÑĩ": 5654,
      "IT": 5655,
      "à¥ĢĊ": 5656,
      "à±į-": 5657,
      "ĠademÃ¡s": 5658,
      "Ġbre": 5659,
      "ĠÐ¿ÑĥÐ½Ðº": 5660,
      "ola": 5661,
      "Ġà¤¸à¤µ": 5662,
      "Ġaunque": 5663,
      "ÐµÑĩÐ½Ð¾": 5664,
      "ĠÑģÑĩÐ¸ÑĤÐ°": 5665,
      "cado": 5666,
      "ĠÐ¿Ð¾Ð¿ÑĥÐ»ÑıÑĢ": 5667,
      "idente": 5668,
      "Ġprom": 5669,
      "Ġdifferent": 5670,
      "ush": 5671,
      "ÐµÐ½Ð½Ð¾Ð³Ð¾": 5672,
      "ĠÐľÐ°ÑĢ": 5673,
      "ĠÑĤÑĢÐ°Ð´Ð¸": 5674,
      "arias": 5675,
      "Ð¾Ð±ÑĢÐ°": 5676,
      "ÑģÑĤÐ²ÑĥÐµÑĤ": 5677,
      "Ð¾Ð³Ð¸Ðµ": 5678,
      "ons": 5679,
      "Ġinterest": 5680,
      "Ġextra": 5681,
      "ĠÐ¾ÑĢÐ³Ð°Ð½ÑĸÐ·": 5682,
      "à±Ĥà°ļ": 5683,
      "ĠÐ²ÐºÐ»ÑİÑĩÐ°": 5684,
      "à±į..": 5685,
      "Ġnever": 5686,
      "Ġappro": 5687,
      "ÐºÐ¾Ð¿": 5688,
      "Ġsex": 5689,
      "ĠÐºÑĢÐ°Ñģ": 5690,
      "ĠÑĤÐ¾Ð½": 5691,
      "Ġencuent": 5692,
      "Ġonline": 5693,
      "Ð²Ñı": 5694,
      "ĠÐ¾Ð¿Ð»Ð°": 5695,
      "Ð½ÐµÑĪ": 5696,
      "Ġante": 5697,
      "ĠÐ·Ð°ÑģÐ¾Ð±": 5698,
      "oney": 5699,
      "ĠÐ½Ð¸Ð·": 5700,
      "Ð½Ð¸ÑĨÑĤÐ²Ð°": 5701,
      "Ġdeter": 5702,
      "ÑĤÐµÐ½": 5703,
      "ĠÐ½ÐµÑģ": 5704,
      "Ð½Ð¾Ð¿": 5705,
      "ĠAc": 5706,
      "à¤¯à¤¹": 5707,
      "ĠÐ´ÐµÑĢÐ¶Ð°": 5708,
      "Ġcier": 5709,
      "Ġmust": 5710,
      "Ð¾Ð²Ñĥ": 5711,
      "ĠÑģÐ²Ñı": 5712,
      "150": 5713,
      "Ð»Ð¾ÑģÑı": 5714,
      "Ġimag": 5715,
      "ÐµÑĢÑĭ": 5716,
      "una": 5717,
      "Ð»ÐµÐ¶": 5718,
      "ĠLo": 5719,
      "Ġbetter": 5720,
      "à±įà°°à°ļ": 5721,
      "Ġmuchos": 5722,
      "eter": 5723,
      "Ð¾Ð¿Ð°Ñģ": 5724,
      "ĠÐĨÐ½": 5725,
      "urch": 5726,
      "Ġhead": 5727,
      "nes": 5728,
      "Ġeas": 5729,
      "ĠÐ´Ð¾Ð»Ð¶Ð½Ñĭ": 5730,
      "ĠÐ²Ð¾Ð»Ð¾Ñģ": 5731,
      "ret": 5732,
      "ling": 5733,
      "ÑĢÐµÑĤÑĮ": 5734,
      "Ġà°Ľ": 5735,
      "ĠSal": 5736,
      "ĠÐ¿ÐµÑĢÐ¸Ð¾Ð´": 5737,
      "ĠÐ¿ÐµÑĢÑĸ": 5738,
      "Ġà°¶à°°": 5739,
      "34": 5740,
      "ĠÑĥÐºÐ°Ð·": 5741,
      "Ġmodel": 5742,
      "lica": 5743,
      "Ġfrien": 5744,
      "ĠÐ¸Ð³ÑĢÐ°": 5745,
      "Ġà¤ķà¤¹à¤¤": 5746,
      "ĠÑģÐ²Ð¾Ð±": 5747,
      "ĠÐ¼ÐµÑħ": 5748,
      "Ġpon": 5749,
      "Ð»ÑıÐ½": 5750,
      "Ð¾Ð²ÑĭÑħ": 5751,
      "ĠÑĸÐ¼": 5752,
      "Ġapro": 5753,
      "ÑĥÐ»": 5754,
      "ĠÐ¼Ð½Ð¾Ð³": 5755,
      "à¤¿à¤¯à¤°": 5756,
      "uch": 5757,
      "Ġnorm": 5758,
      "ĠÑĩÑĥÐ²": 5759,
      "Ġfavor": 5760,
      "ĠÑģÐµÐ³Ð¾Ð´Ð½Ñı": 5761,
      "Ð´Ð°ÑĤÑĮ": 5762,
      "ĠÐ¾Ð´Ð½Ð¾": 5763,
      "ĠÃ©l": 5764,
      "Ġà¤°à¤ĸà¤¨": 5765,
      "ÐºÐ¾Ð¼Ñĥ": 5766,
      "ĠÑģÐ°Ð¼Ð¾ÑģÑĤ": 5767,
      "ÑĮÐ²": 5768,
      "à±įà°¯à°°": 5769,
      "Ġsomething": 5770,
      "ield": 5771,
      "ĠÐ²ÑģÑĤÐ°Ð½Ð¾Ð²": 5772,
      "ÑĤÐ¸Ð¼": 5773,
      "ĠMin": 5774,
      "ked": 5775,
      "ĠÐ²ÑĭÐ·": 5776,
      "Ġhoy": 5777,
      "ĠÐ½Ð°ÑģÑĤÐ¾Ñı": 5778,
      "rem": 5779,
      "Ġdesc": 5780,
      "Ġlove": 5781,
      "ĠÑģÐ¸Ð½": 5782,
      "ĠÐ¿ÐµÑĢÐµÐ±": 5783,
      "Ġnom": 5784,
      "fici": 5785,
      "ÑĤÐ¸ÑĩÐµÑģÐºÐ¸": 5786,
      "cios": 5787,
      "Ġcountr": 5788,
      "à¤¸à¤Ń": 5789,
      "Ġhard": 5790,
      "ĠÐ¸ÑģÑģÐ»ÐµÐ´": 5791,
      "à±ĭà°ļ": 5792,
      "Ġeconom": 5793,
      "Ð°Ð»Ð¾ÑģÑı": 5794,
      "soci": 5795,
      "ĠÑĢÐµÑģ": 5796,
      "à°ļà°¬à°¡": 5797,
      "Ġà°ªà°ķ": 5798,
      "ĠÐĶÐ¶": 5799,
      "ĠÐ³ÐµÐ½": 5800,
      "Ġva": 5801,
      "ĠÐ»Ð¸ÑĪÑĮ": 5802,
      "Ġstate": 5803,
      "à¥Īà¤®": 5804,
      "ĠÐ±Ð°Ð»": 5805,
      "]Ċ": 5806,
      "ĠÑĦÐ¸Ð½": 5807,
      "Ġcla": 5808,
      "ÑĳÐ½": 5809,
      "Ð»ÑİÐ´": 5810,
      "ium": 5811,
      "ĠÐ¿Ð¾Ð´Ð´ÐµÑĢÐ¶": 5812,
      "38": 5813,
      "ĠÐ¼Ð¾Ð½": 5814,
      "Ġtemp": 5815,
      "Ġrefer": 5816,
      "ÑģÐ¾Ð½": 5817,
      "ÐŀÑģ": 5818,
      "ĠPM": 5819,
      "ĠÑĢÐ°Ð¼": 5820,
      "vernment": 5821,
      "Ð½Ð¾ÑģÐ¸": 5822,
      "ĠsÃŃ": 5823,
      "ĠÐ´ÑĸÑıÐ»ÑĮÐ½Ð¾ÑģÑĤÑĸ": 5824,
      "iere": 5825,
      "ÑĢÐ¾Ð¹": 5826,
      "ĠÐ¾ÑģÐ²Ñĸ": 5827,
      "Ġprob": 5828,
      "ĠseÃ±": 5829,
      "Ġà°¤à°ķ": 5830,
      "ĠÑĦÐ¾ÑĤÐ¾": 5831,
      "Ġà¤®à¤¹à¤¤": 5832,
      "ĠÐ¾ÑĦÐ¾ÑĢÐ¼": 5833,
      "Ġà°®à°³": 5834,
      "Ð¾Ð³Ð¾Ñİ": 5835,
      "acebook": 5836,
      "ĠÐ¾Ð±ÑĢÐ°Ð·Ð¾Ð¼": 5837,
      "Ġredu": 5838,
      "ĠÐ²ÑĭÐ±": 5839,
      "ÐµÐ»ÐµÐ¼": 5840,
      "Ġsince": 5841,
      "Ġtoda": 5842,
      "Ġà¤ķà¤¹à¤¨": 5843,
      "à±įà°¤à°°": 5844,
      "ĠÑģÑĭ": 5845,
      "tas": 5846,
      "Ġincluding": 5847,
      "ĠÐ´Ð¾Ð»Ð¶ÐµÐ½": 5848,
      "Ã¡l": 5849,
      "Ġwithout": 5850,
      "ĠcÃ³mo": 5851,
      "Ð½Ð¸ÑĨÑĮ": 5852,
      "ĠCal": 5853,
      "Ġfinan": 5854,
      "Ġsecond": 5855,
      "ĠÐļÐ¾Ð¼": 5856,
      "RE": 5857,
      "à¤¿,": 5858,
      "ĠÑĤÐ°ÐºÐ¾Ð³Ð¾": 5859,
      "ĠÑģÑĢÐµÐ´ÑģÑĤÐ²Ð°": 5860,
      "Ġsays": 5861,
      "ĠÑĩÐ°ÑģÑĤÑĮ": 5862,
      "ÑĢÐ¸Ð½": 5863,
      "ĠÑĢÑĥÑģ": 5864,
      "Ġà¤ľà¤Ĺà¤¹": 5865,
      "à¤ªà¤¤": 5866,
      "ĠÐ³Ð¾Ð»Ð¾Ñģ": 5867,
      "à¥ĩ-": 5868,
      "à¥ģà¤§": 5869,
      "Ð¸ÑĤÐµÐ»Ð¸": 5870,
      "Ġstand": 5871,
      "Ġfour": 5872,
      "ĠÐ·Ð´ÐµÑģÑĮ": 5873,
      "ya": 5874,
      "ÑīÑĸ": 5875,
      "Ġfeel": 5876,
      "Ð»ÐµÐºÑĤ": 5877,
      "ologÃŃa": 5878,
      "Ġkeep": 5879,
      "à°¿à°¹": 5880,
      "à°Ĥà°Łà°²": 5881,
      "ĠÐ¾Ð±Ð¾ÑĢ": 5882,
      "Ġalgunos": 5883,
      "lu": 5884,
      "à¤¸à¤²": 5885,
      "ĠÐ½Ð¸Ðº": 5886,
      "Ð°Ð»ÑĮÐ½Ð°": 5887,
      "ĠÐĴÐ¾Ð»": 5888,
      "ĠserÃ¡": 5889,
      "Ġprocess": 5890,
      "Ð¼Ð¸Ð½Ð¸": 5891,
      "à±Įà°¨": 5892,
      "ĠpÃºblic": 5893,
      "ĠÑĢÐµÐ¼Ð¾Ð½": 5894,
      "ĠÑĤÐµÐ±Ðµ": 5895,
      "ĠÑİÑĢÐ¸": 5896,
      "Ġmedio": 5897,
      "à±Įà°°": 5898,
      "à¥Īà¤¦": 5899,
      "à¤Ĩà¤°": 5900,
      "ares": 5901,
      "à°¾à°Ĥ.": 5902,
      "Ġrecon": 5903,
      "ĠÑĥÐ²ÐµÐ»Ð¸": 5904,
      "ĠÑģÐ¸ÑģÑĤÐµÐ¼Ñĭ": 5905,
      "ĠÐ±Ð°ÑĤÑĮ": 5906,
      "°ı": 5907,
      "à°¾à°¬à°Ł": 5908,
      "Ð¿Ñĭ": 5909,
      "ĠÑħÐ¾Ð´": 5910,
      "ĠÐ·Ð°Ð·Ð½Ð°": 5911,
      "Ġà¤¹à¤ľ": 5912,
      "à¤ıà¤ķ": 5913,
      "ĠÐ¿ÑĢÐµ": 5914,
      "ÐŀÐĴ": 5915,
      "ĠÑģÐ²Ð¾ÑĶ": 5916,
      "Ġdatos": 5917,
      "Ð²Ð°Ð»Ð°": 5918,
      "lex": 5919,
      "Ð¸Ð¼Ð¾ÑģÑĤÑĮ": 5920,
      "ĠÐ²Ð½Ñĥ": 5921,
      "Ġà°İà°¸": 5922,
      "ĠÐºÐ¾ÑĤÐ¾ÑĢÐ¾Ð¹": 5923,
      "Ġà¤īà¤¸à¤¨": 5924,
      "ĠÑģÐ°Ð¼Ð¸": 5925,
      "à°ı": 5926,
      "Ġconstru": 5927,
      "Ġloc": 5928,
      "ĠÑĤÑĢÐµÐ±": 5929,
      "à±įà°·à°ķ": 5930,
      "ĠÐ¿ÑĢÐµÐ´Ð»Ð¾Ð¶": 5931,
      "ĠÑģÑĮÐ¾Ð³Ð¾Ð´Ð½Ñĸ": 5932,
      "ĠÐ¿ÐµÐ½": 5933,
      "Ġseman": 5934,
      "ĠÑĦÑĸÐ½Ð°Ð½Ñģ": 5935,
      "Ġhi": 5936,
      "Ġà¤µà¤ľà¤¹": 5937,
      "ĠÐ¿ÑĢÐ¾Ð¹": 5938,
      "ĠÐ¿ÑĸÐ´ÑĤÑĢÐ¸Ð¼": 5939,
      "ĠÐ²ÐµÑģÑĮ": 5940,
      "ĠÐ½Ð°Ð´Ð°": 5941,
      "Ġpower": 5942,
      "ÑĢÑĥÐµÑĤ": 5943,
      "ÑģÑıÐ³": 5944,
      "ĠÐ·Ð°ÑĤ": 5945,
      "Ġutiliz": 5946,
      "Ð»ÑıÐµÑĤ": 5947,
      "less": 5948,
      "iod": 5949,
      "Ð²Ð°ÑĤÐ¸ÑģÑı": 5950,
      "Ð¾Ð·Ð°": 5951,
      "ĠÑĥÐ½Ñĸ": 5952,
      "ĠPero": 5953,
      "rollo": 5954,
      "Ġà¤¢": 5955,
      "Un": 5956,
      "ĠÃºn": 5957,
      "Ġig": 5958,
      "Ġposs": 5959,
      "ĠÐĽÑİ": 5960,
      "-b": 5961,
      "ders": 5962,
      "____": 5963,
      "ĠShe": 5964,
      "ÐµÑĢÐ¾Ð¼": 5965,
      "ĠÐ²Ð¾Ð·Ð¼Ð¾Ð¶Ð½Ð¾ÑģÑĤÑĮ": 5966,
      "ĠÐ½Ð°ÑĩÐ¸Ð½Ð°": 5967,
      "'re": 5968,
      "Ð°ÐºÐ¾Ð½": 5969,
      "55": 5970,
      "Ġmad": 5971,
      "ĠÐĴÑĸÐ´": 5972,
      "ĠÐ±Ð¸": 5973,
      "Ð»ÐµÐ½Ð¸Ð¸": 5974,
      "ĠÐ²Ð¸Ñģ": 5975,
      "ĠÑģÐµÐ¹ÑĩÐ°Ñģ": 5976,
      "ÑĥÐ²Ð°Ð²": 5977,
      "Ġtechn": 5978,
      "Ġavailable": 5979,
      "ĠÑģÐ¼ÐµÑĢ": 5980,
      "Ġhealth": 5981,
      "à¥Ģà¤¶": 5982,
      "IS": 5983,
      "Ġwrit": 5984,
      "omen": 5985,
      "ĠAt": 5986,
      "Ġà¤ĺà¤Łà¤¨": 5987,
      "self": 5988,
      "'m": 5989,
      "à¥Īà¤Ł": 5990,
      "à±ĭà°³": 5991,
      "Ġà°ıà°ª": 5992,
      "Ġà°Ńà°°": 5993,
      "à¥Ĥà¤Ľ": 5994,
      "Ġallow": 5995,
      "ĠÐ¼ÐµÑģÑĤÐ¾": 5996,
      "Ġcasa": 5997,
      "Ã©t": 5998,
      "Ġcum": 5999,
      "ĠÑĢÑĥÐ±Ð»ÐµÐ¹": 6000,
      "à±ģà°ľ": 6001,
      "Ġindivid": 6002,
      "ĠÐ¿Ð¾Ð»ÑĥÑĩÐ°": 6003,
      "ĠÐ·Ð°Ð²ÐµÑĢ": 6004,
      "à±įà°²à°¡": 6005,
      "Ġdev": 6006,
      "ĠÑĦÐ¾ÑĢÐ¼Ñĥ": 6007,
      "Ġparticular": 6008,
      "ÑĤÐ°ÑĤÐ¸": 6009,
      "Ġmult": 6010,
      "ĠÐ²Ð¼ÐµÑģÑĤ": 6011,
      "Ġà°«à°²": 6012,
      "à°¾à°Łà°²": 6013,
      "ÑĪÐ¾Ð²": 6014,
      "ĠÐºÐ¾Ñģ": 6015,
      "à¥Įà¤¨": 6016,
      "à¤¿à¤¬": 6017,
      "Ð¿Ð¾Ð¼": 6018,
      "ĠÐ´Ð¸ÑĢÐµÐº": 6019,
      "à¤¿à¤¸à¤¸": 6020,
      "ĠÐ¿Ð¾Ñħ": 6021,
      "Ġà¤«à¤°": 6022,
      "ĠÐ±ÐµÑģÐ¿Ð»Ð°ÑĤ": 6023,
      "Ġed": 6024,
      "à¤ľà¤¨": 6025,
      "Ð²ÐµÑĢÑģÐ¸ÑĤ": 6026,
      "ĠÐ²Ð¾Ð¹": 6027,
      "ĠÑĤÐµÑĢÑĢÐ¸ÑĤ": 6028,
      "Ð¼ÑĸÐ½ÑĸÑģÑĤÑĢÐ°": 6029,
      "ards": 6030,
      "Ġanal": 6031,
      "ÐµÑĢÐ¾Ð²": 6032,
      "ĠÐ¶ÑĸÐ½": 6033,
      "Ã¡m": 6034,
      "icia": 6035,
      "outh": 6036,
      "Ġsmall": 6037,
      "à¤ķà¤°à¤£": 6038,
      "Ð¿Ð¾Ñĩ": 6039,
      "ĠÐ¼Ð»Ð½": 6040,
      "Ð´Ð¾Ð²": 6041,
      "à¤Ĥà¤Łà¤°": 6042,
      "Si": 6043,
      "Ġseason": 6044,
      "Ġago": 6045,
      "Ġautor": 6046,
      "-à¤¸": 6047,
      "Ġrecib": 6048,
      "à±Ĥà°µ": 6049,
      "ĠHow": 6050,
      "Qu": 6051,
      "embre": 6052,
      "Ġnuestros": 6053,
      "www": 6054,
      "ĠÐ³ÑĢÐ¾": 6055,
      "ĠÐľÑĭ": 6056,
      "Ġpie": 6057,
      "ĠÑģÑĤÐ°Ð»Ð¸": 6058,
      "Ġmor": 6059,
      "à±ģà°®à°¤": 6060,
      "ĠThere": 6061,
      "Ġneg": 6062,
      "ĠGoogle": 6063,
      "à±ģà°µà°Ĺ": 6064,
      "Ġà¤ľà¤µ": 6065,
      "De": 6066,
      "Ġcele": 6067,
      "Ġbuen": 6068,
      "05": 6069,
      "ĠÐ³Ð°ÑĢ": 6070,
      "Ġdefin": 6071,
      "uridad": 6072,
      "37": 6073,
      "ÑĢÐµÐ¶Ð´": 6074,
      "ĠÐ´Ð°Ð»": 6075,
      "ĠÐ³ÑĢÑĥÐ´": 6076,
      "à°¿à°¯à°°": 6077,
      "ĠÑĥÐ±": 6078,
      "Ġà°ķà°¦": 6079,
      "à¤¿à¤²à¤¤": 6080,
      "Ġà¤Ĩà¤®": 6081,
      "ately": 6082,
      ".)": 6083,
      "otros": 6084,
      "count": 6085,
      "pend": 6086,
      "ĠÑģÑĸÐ¼": 6087,
      "Ġcond": 6088,
      "ÑĨÐµÐ¿": 6089,
      "work": 6090,
      "ĠÐĴÐµÑĢ": 6091,
      "Ð°ÑĶ": 6092,
      "Ġnada": 6093,
      "Ġidea": 6094,
      "uper": 6095,
      "ĠÑģÐ´ÐµÐ»": 6096,
      "à±įà°ļà°°": 6097,
      "Ġperfect": 6098,
      "ĠÐ³ÑĢÐ°Ð¶Ð´": 6099,
      "Ġnumber": 6100,
      "Ġqued": 6101,
      "Ð»Ð¸Ð²Ð¾ÑģÑĤÑĸ": 6102,
      "ĠÑĥÑģÑĤÐ°Ð½": 6103,
      "ĠÑħÑĥÐ´": 6104,
      "à¥Īà¤Ĥ.Ċ": 6105,
      "Ġà°¤à°¯": 6106,
      "à°¿à°·à°¨": 6107,
      "ĠÐ´Ð²ÑĥÑħ": 6108,
      "fe": 6109,
      "Ð»Ð°Ð±": 6110,
      "Ð¾ÑĢÐµ": 6111,
      "à¥ĭà¤µ": 6112,
      "à¤¾à¤Ĺà¤°": 6113,
      "ÐµÑĪÑĮ": 6114,
      "Ð¸Ð¼Ð¸": 6115,
      "ĠPres": 6116,
      "Ġcontinu": 6117,
      "Ġquier": 6118,
      "Ġà°¸à°¨": 6119,
      "ĠÑĢÐµÐ³Ð¸": 6120,
      "ĠÐºÐµÑĢÑĸÐ²": 6121,
      "Ġà°Ĩà°¹": 6122,
      "ÐµÐ½Ð½Ð¾ÑģÑĤÐ¸": 6123,
      "isiÃ³n": 6124,
      "ĠÐ³Ð¾ÑģÐ¿Ð¾Ð´": 6125,
      "ĠÐ¿ÐµÑĢÐµÐ³": 6126,
      "ĠÐ´ÑĢÑĥÐ³Ð¸Ðµ": 6127,
      "otos": 6128,
      "ĠÐ¾Ð±ÑĬÐµÐº": 6129,
      "Ã¡nd": 6130,
      "ĠBr": 6131,
      "ĠÑĢÐ¾ÑģÑĸÐ¹": 6132,
      "Ġcomer": 6133,
      "Ð¾ÐºÑĢÐµÐ¼": 6134,
      "ĠPer": 6135,
      "Ġdig": 6136,
      "ĠÐ¿Ð¾ÑģÑĤÑĥÐ¿": 6137,
      "Ð½ÑĸÑĪ": 6138,
      "09": 6139,
      "ĠÐ³Ð¾ÑģÑĥÐ´Ð°ÑĢÑģÑĤÐ²ÐµÐ½": 6140,
      "Ġà¤§à¤°": 6141,
      "Ġseem": 6142,
      "ĠÑĤÐ°ÐºÐ¸Ð¼": 6143,
      "Ġembargo": 6144,
      "à°ļà°°": 6145,
      "orte": 6146,
      "Ġà°¡à°¬": 6147,
      "ĠGr": 6148,
      "ustom": 6149,
      "Ġalways": 6150,
      "hor": 6151,
      "Ġcosas": 6152,
      "Ġquer": 6153,
      "à°Ĥ.Ċ": 6154,
      "ĠÐ¿Ð¾Ð¼Ð¾ÑīÑĮÑİ": 6155,
      "ĠâĢ¦": 6156,
      "ĠÑģÐ¾ÑģÑĤÐ°Ð²Ð»Ñı": 6157,
      "ĠÑĸÐ½ÑĪÑĸ": 6158,
      "ĠÐ¿ÑĢÐ¾Ðº": 6159,
      "ĠÐ¾ÑģÑĥÑīÐµÑģÑĤÐ²": 6160,
      "Ġà°®à°¦": 6161,
      "ĠÑĥÑĤ": 6162,
      "Ġà¤²à¤ķ": 6163,
      "ÑģÐ¿ÑĸÐ»ÑĮ": 6164,
      "ĠÐ²ÐµÑĩ": 6165,
      "ĠÑĦÐ¾ÑĢÐ¼Ð¸": 6166,
      "ÑĪÐº": 6167,
      "AM": 6168,
      "Ġà°¨à°µ": 6169,
      "Ð¿ÑĤÐ¾Ð¼": 6170,
      "cord": 6171,
      "à¥ģà¤£": 6172,
      "ĠÑģÐ²Ð¾Ð¸Ñħ": 6173,
      "Ð°Ð¶": 6174,
      "Ð¬": 6175,
      "ÐºÐ¾Ð²Ð¾Ð³Ð¾": 6176,
      "iment": 6177,
      "à°¤à°®": 6178,
      "ĠÐ¿ÑĢÐ¸Ð¼ÐµÑĢ": 6179,
      "à¥įà¤·à¤ķ": 6180,
      "Ġpasado": 6181,
      "das": 6182,
      "Ġanim": 6183,
      "ĠÐ´Ð²Ð¾": 6184,
      "Ð´ÐµÐ½": 6185,
      "Ġmight": 6186,
      "Ð½Ð¸ÑĤ": 6187,
      "ĠÑĤÐ¸Ñħ": 6188,
      "ĠÐ½ÐµÐ´Ð¾ÑģÑĤ": 6189,
      "Ġinde": 6190,
      "ĠÐŁÐµÑĤ": 6191,
      "ney": 6192,
      "cos": 6193,
      "à±Ĭà°¨à°¸": 6194,
      "ĠÐ²Ð²Ð°Ð¶Ð°": 6195,
      "ĠÐ±Ð¸Ð·Ð½ÐµÑģ": 6196,
      "ĠÐ¤ÐµÐ´ÐµÑĢÐ°": 6197,
      "ĠÐ¾Ð·Ð½Ð°": 6198,
      "ÑģÑĮÐºÑĥ": 6199,
      "Ð»ÑĸÐ²": 6200,
      "Ġdecid": 6201,
      "ĠÐ´Ð¾ÑħÐ¾Ð´": 6202,
      "Ġconoc": 6203,
      "à±įà°¤à°®": 6204,
      "48": 6205,
      "Ġclass": 6206,
      "ÑĩÑĸÐ²": 6207,
      "ĠMad": 6208,
      "Ġequipo": 6209,
      "Ġfre": 6210,
      "ĠÑĩÐ¸ÑĤ": 6211,
      "ÐºÑĥÐ¿": 6212,
      "Ð¾Ð·Ð¼Ð¾Ð¶": 6213,
      "ĠÐ´ÐµÐ»": 6214,
      "Ð½Ð¸ÐºÑĥ": 6215,
      "Ġmillones": 6216,
      "ÑĨÐµÐ¼": 6217,
      "Ġdiv": 6218,
      "ĠÐºÐ¾Ð¼Ñĥ": 6219,
      "Ġ?": 6220,
      "à¥įà¤°à¤¹": 6221,
      "ĠÐ½Ð°Ð¹Ð±ÑĸÐ»ÑĮ": 6222,
      "Ð°Ð½Ðº": 6223,
      "ĠÐºÐ°ÑĢÑĤ": 6224,
      "Ġdin": 6225,
      "ĠÑĢÐ¾ÑģÑģÐ¸Ð¹": 6226,
      "Ġfamily": 6227,
      "gin": 6228,
      "ĠÐ¿Ð¾ÑģÑĤÐ¾ÑıÐ½": 6229,
      "à°ķà°ª": 6230,
      "Ġhistoria": 6231,
      "ĠÐ±Ð»Ð¸Ð·ÑĮ": 6232,
      "ival": 6233,
      "Ġperform": 6234,
      "ĠÐºÐ°ÑĤÐµÐ³": 6235,
      "Ġusing": 6236,
      "fo": 6237,
      "Ð½ÑĮÐ¾ÑĹ": 6238,
      "ĠÐ½Ð°Ð´Ð¾": 6239,
      "Ġpast": 6240,
      "ĠÐ¼ÐµÐ½Ðµ": 6241,
      "ĠÑĢÐµÑģÑĥÑĢ": 6242,
      "ĠÐ¼Ð°ÑĪÐ¸": 6243,
      "ĠÐ²Ð¾Ð·ÑĢÐ°": 6244,
      "ĠÑĢÐµÑĪ": 6245,
      "eng": 6246,
      "Ð°Ð»ÑĮÐ½Ð°Ñı": 6247,
      "ĠÐ±ÑĥÐ´ÑĸÐ²": 6248,
      "atal": 6249,
      "Ġà°¨à°°": 6250,
      "ĠTra": 6251,
      "tes": 6252,
      "Ġlan": 6253,
      "Ġetc": 6254,
      "Ð»Ð°Ð¼": 6255,
      "serv": 6256,
      "Ġhot": 6257,
      "ÑĢÑĸÐ·": 6258,
      "ÐŁÐµÑĢ": 6259,
      "Ð¾Ð±ÑĢ": 6260,
      "ÑģÑĤÐ²Ð¸Ð¸": 6261,
      "ĠÑĢÑĥÐºÐ¾Ð²Ð¾Ð´": 6262,
      "Las": 6263,
      "ÑĸÐ³": 6264,
      "-Ñħ": 6265,
      "ĠÑĤÐ¾Ð¶Ðµ": 6266,
      "à¤Ĥà¤Ĺà¤²": 6267,
      "Ġos": 6268,
      "Ġprepar": 6269,
      "imin": 6270,
      "ÑıÐ³Ð¾Ð¼": 6271,
      "ĠJohn": 6272,
      "ĠÐ¿ÐµÐ²": 6273,
      "Ġà¤Ĩà¤¶": 6274,
      "à¤¾à¤¨à¤®": 6275,
      "ually": 6276,
      "ĠÑģÐ¸ÑģÑĤÐµÐ¼Ð°": 6277,
      "ha": 6278,
      "à±įâĢĻ": 6279,
      "Ġà°ĵà°Ł": 6280,
      "ĠÐ¾Ð±Ð¾Ð²": 6281,
      "ĠÑģÐ¾ÑĢ": 6282,
      "à°¾à°¯à°²": 6283,
      "Ġoffer": 6284,
      "à±įà°¹": 6285,
      "ula": 6286,
      "Ġuso": 6287,
      "isis": 6288,
      "ĠÑĪÐ»ÑıÑħ": 6289,
      "ized": 6290,
      "ams": 6291,
      "Ġviol": 6292,
      "Ġappe": 6293,
      "ativo": 6294,
      "ĠÐ¿Ñĥ": 6295,
      "ĠÐºÑĢÑĥÐ¿": 6296,
      "ĠÐ·Ð°Ñī": 6297,
      "Ð´Ð¾": 6298,
      "Ġinteres": 6299,
      "ĠÑĤÐ¾ÑĢÐ³Ð¾Ð²": 6300,
      "Ġvideo": 6301,
      "à±įà°®à°²": 6302,
      "Ġà¤¶à¤¹à¤°": 6303,
      "ĠÐĺÐ·": 6304,
      "Ð»Ð°ÑģÐ¸": 6305,
      "Ġà¤¨à¤ı": 6306,
      "à±ĭà°µà°ļ": 6307,
      "ĠVal": 6308,
      "Ã¡g": 6309,
      "ĠÐ³Ð°ÑĢÐ°Ð½": 6310,
      "ĠÐºÐ¾Ð½ÑģÑĤÑĢÑĥÐº": 6311,
      "une": 6312,
      "Ġbelie": 6313,
      "Ð³ÑĸÐ´": 6314,
      "Ġà¤¨à¤µ": 6315,
      "Ð»ÐµÐ½Ñĸ": 6316,
      "Ġgen": 6317,
      "Ð»ÑĥÑĩ": 6318,
      "Ġpay": 6319,
      "ived": 6320,
      "ĠÐ´ÐµÐ½": 6321,
      "ĠÐ¿ÑĢÐ¾Ð¶": 6322,
      "Ġmaterial": 6323,
      "Ð¾Ð²ÑĭÐµ": 6324,
      "ĠÐ°ÑĢÑħ": 6325,
      "ĠQu": 6326,
      "Ġ...": 6327,
      "ÑĢÐ°Ð¼Ð¸": 6328,
      "Ġadmin": 6329,
      "ĠWin": 6330,
      "à¤¿à¤¯à¤¨": 6331,
      "ÃŃf": 6332,
      "arr": 6333,
      "ĠÐŁÐ¾Ð»": 6334,
      "Ġol": 6335,
      "Ð¾Ð·Ñı": 6336,
      "à±ĩà°ªà°¥": 6337,
      "ĠÐĶÐ¾": 6338,
      "ping": 6339,
      "ĠÐ¸Ð´Ðµ": 6340,
      "Ġdays": 6341,
      "Ġà¤¸à¤²": 6342,
      "Ġdiferentes": 6343,
      "Ð¢Ðŀ": 6344,
      "Ð¸ÑģÑĤÑĢÐ°": 6345,
      "Ð°ÑģÑĤ": 6346,
      "ĠÐ¿ÐµÑĩ": 6347,
      "ĠÐ¿ÑĢÐ¸Ð½Ñı": 6348,
      ".\"": 6349,
      "oca": 6350,
      "Ġhacia": 6351,
      "Ġà¤ļà¤°": 6352,
      "Ð°ÑĤÑĭ": 6353,
      "Ð°ÑĤÑĥ": 6354,
      "ĠÑįÑĦÑĦÐµÐºÑĤÐ¸Ð²": 6355,
      "iven": 6356,
      "ĠÑģÐ¾Ð±Ð¾Ð¹": 6357,
      "ÑĦÐ¾ÑĢÐ¼Ð¸": 6358,
      "Ġnews": 6359,
      "à¤¿à¤£": 6360,
      "à±ĭà°ľà°¨": 6361,
      "Ð½Ð¾Ñĩ": 6362,
      "ÑīÐ¸Ð¼": 6363,
      "Ġposible": 6364,
      "ode": 6365,
      "ĠÐ·Ð°ÑħÐ¸ÑģÑĤ": 6366,
      "44": 6367,
      "ĠÑıÐ·Ñĭ": 6368,
      "ĠÑħÐ²Ð¾ÑĢ": 6369,
      "à°İà°¸": 6370,
      "uerdo": 6371,
      "ĠÑįÑĤÐ¸Ñħ": 6372,
      "à°¾à°¨à°¨": 6373,
      "Ġcant": 6374,
      "ÑģÐ¾ÑĢ": 6375,
      "Ġbase": 6376,
      "ror": 6377,
      "ĠÑĥÐ·": 6378,
      "Ġà¤µà¤ķ": 6379,
      "ĠÐºÑĸÐ½": 6380,
      "ĠÑģÐ¸ÑģÑĤÐµÐ¼Ð¸": 6381,
      "Ġello": 6382,
      "aut": 6383,
      "à±įà°ķà°²": 6384,
      "Ĥ¬": 6385,
      "Ġcolor": 6386,
      "ĠÐ¿ÑĥÑĤ": 6387,
      "ÑĢÑĥÑģ": 6388,
      "ĠÑĤÑıÐ¶": 6389,
      "Ġà°Ĺà°¡": 6390,
      "Ð¸Ð½Ñĭ": 6391,
      "Ġejemplo": 6392,
      "Ġning": 6393,
      "ĠÐ¾Ð±ÑĢÐ°": 6394,
      "Ð¼Ð¸ÑĢ": 6395,
      "Ġproject": 6396,
      "ĠÑĢÑĸÐ´": 6397,
      "ĠSu": 6398,
      "Ġsc": 6399,
      "ĠÐ¿Ð»Ð°ÑĤ": 6400,
      "ĠÐ¿Ð¸ÑģÑĮ": 6401,
      "Ġestable": 6402,
      "ĠÐľÐ¾Ð¶": 6403,
      "à¥ĩà¤Ĥà¥¤Ċ": 6404,
      "ĠÐ±ÑĥÐ´ÑĥÑĤÑĮ": 6405,
      "ĠÐºÐ¸Ñģ": 6406,
      "ÐµÐ½Ð½Ð¾Ð¹": 6407,
      "Ð²Ð°Ñı": 6408,
      "ĠÐ¼ÑĸÑģÑı": 6409,
      "Ġà¤ıà¤¨": 6410,
      "ĠÐ¿Ð¾ÑĢÑĥÑĪ": 6411,
      "ÑĸÐ¹Ð½Ð¾": 6412,
      "Ð»Ð¸Ð¹": 6413,
      "ĠÐ½Ð°Ð¿Ð¸Ñģ": 6414,
      "ĠLu": 6415,
      "Ð°ÑĤÐ¾ÑĢ": 6416,
      "ĠÐ´Ð¾Ð¼Ð°": 6417,
      "ĠÐ¸ÑģÐ¿Ð¾Ð»ÑĮÐ·Ð¾Ð²Ð°ÑĤÑĮ": 6418,
      "Ð¾Ð¼Ð°": 6419,
      "ĠÐ²Ð¸Ð±": 6420,
      "ĠÑĢÐ°Ð·Ð¼ÐµÑĢ": 6421,
      "Ð°ÑĤÐµÐ»ÐµÐ¹": 6422,
      "195": 6423,
      "uros": 6424,
      "ĠÑĦÐ¸Ð·": 6425,
      "à¥ĩà¤¹à¤¤à¤°": 6426,
      "Ġhttp": 6427,
      "ÑģÐµÐ¼": 6428,
      "ĠÐ¿Ð¸Ñģ": 6429,
      "ĠÐĴÐ°Ð¼": 6430,
      "Ġwater": 6431,
      "Ð°Ð»ÑĮÐ½Ð¾Ðµ": 6432,
      "ĠÐ¿ÐµÑĢÐµÐ´Ð±Ð°": 6433,
      "Ġnueva": 6434,
      "ĠÐ´ÐµÑĢÐµÐ²": 6435,
      "ĠÐ¿ÑĢÐ¾Ð²ÐµÑĢ": 6436,
      "Ġcurr": 6437,
      "ĠÐ´ÐµÑı": 6438,
      "Ġespaci": 6439,
      "à¤Ĥà¤¦à¤°": 6440,
      "Ð¼ÐµÑĢÐ¸Ðº": 6441,
      "Ð½ÑĮÐ¾": 6442,
      "Ġty": 6443,
      "Ġsue": 6444,
      "ĠÐ¼Ð°Ð»ÐµÐ½ÑĮ": 6445,
      "anda": 6446,
      "nos": 6447,
      "à±Ĭà°®": 6448,
      "ily": 6449,
      "Ġeffect": 6450,
      "ĠÐ¿Ð¾ÑĤÐ¾Ð¼Ñĥ": 6451,
      "Ð»ÑıÑĶ": 6452,
      "ÑĢÐµÐ³": 6453,
      "Ġproceso": 6454,
      "ĠÐ´ÐµÐ¿ÑĥÑĤ": 6455,
      "ĠÑĤÑĢÐµÐ±Ñĥ": 6456,
      "ĠÐ½Ð¸Ñĩ": 6457,
      "Ġà°¥": 6458,
      "ĠÐ±ÐµÐ·Ð¿": 6459,
      "itud": 6460,
      "Ġà¤¤à¤°à¤«": 6461,
      "Ġà¤¨à¤°": 6462,
      "ÑĦÐ¸ÐºÐ°": 6463,
      "Ð°Ð½Ðµ": 6464,
      "à¤¦à¤®": 6465,
      "iet": 6466,
      "Ġturn": 6467,
      "aur": 6468,
      "Ġmag": 6469,
      "ĠÑĤÐ°ÐºÑĸ": 6470,
      "ĠÐ·ÑĥÑģÑĤ": 6471,
      "ÑĪÐ¸Ð½": 6472,
      "ĠÐºÐ¾Ð¼Ð¿Ð»ÐµÐºÑģ": 6473,
      "ird": 6474,
      "Ad": 6475,
      "Ð½Ð¸Ð¶": 6476,
      "Ġpersona": 6477,
      "ĠÐ´Ð¾ÑģÑĤÐ°ÑĤÐ¾ÑĩÐ½Ð¾": 6478,
      "Ġà¤ļà¤²à¤¤": 6479,
      "ĠÐ¿ÑĢÐµÐ²": 6480,
      "ĠÐ»ÑİÐ´Ð¸Ð½Ð¸": 6481,
      "Ġfull": 6482,
      "Ġtoday": 6483,
      "ÑīÐµÐ³Ð¾": 6484,
      "ĠÐ³Ð¾ÑĢÐ¾Ð´Ð°": 6485,
      "ĠÑģÑĤÐ¾ÑĢÐ¾Ð½Ñĭ": 6486,
      "view": 6487,
      "ÑīÐµÐ¹": 6488,
      "Ð¾ÑĤÐ¾": 6489,
      "ĠÐ·Ð°Ð½Ð¸Ð¼Ð°": 6490,
      "Ġmientras": 6491,
      "ĠÐ²ÑĭÐ±Ð¾ÑĢ": 6492,
      "ĠÐ½ÑĮÐ¾Ð³Ð¾": 6493,
      "Ġpract": 6494,
      "Ġemail": 6495,
      "Ġgive": 6496,
      "ĠÑĢÑĸÐº": 6497,
      "à±įà°®à°¨": 6498,
      "ecut": 6499,
      "ÑĩÐ°ÑģÑĤ": 6500,
      "Ġden": 6501,
      "ĠÑĢÐ°Ð²": 6502,
      "ĠÑģÑĥÑĩÐ°Ñģ": 6503,
      "ĠCor": 6504,
      "à±Ĥà°ķ": 6505,
      "ĠÐ»Ð¸Ð±Ð¾": 6506,
      "Ġà¤¦à¤²": 6507,
      "rop": 6508,
      "ĠÑģÐ¿Ð¸Ñģ": 6509,
      "06": 6510,
      "Ġexpect": 6511,
      "ĠÐ²Ð¸Ð´Ð°": 6512,
      "clus": 6513,
      "ĠÑĢÑĥÑħ": 6514,
      "ÐºÑĢÐµÑĤ": 6515,
      "Ġà°ħà°Ł": 6516,
      "à±įà°¯à°¨": 6517,
      "ĠÑģÐ¾Ñħ": 6518,
      "acidad": 6519,
      "ĠÐ±ÐµÐ·Ð¾Ð¿Ð°Ñģ": 6520,
      "Ġà¤īà¤ļ": 6521,
      "ably": 6522,
      "ĠÐ´Ð¾Ð¿Ð¾Ð¼Ð¾Ð³Ð¾Ñİ": 6523,
      "ĠÑĤÐ°ÐºÐ¸Ðµ": 6524,
      "ĠÐŀÐ½Ð¸": 6525,
      "Ã©cn": 6526,
      "ĠÐ¶Ð¸Ð·Ð½ÑĮ": 6527,
      "Ġmanag": 6528,
      "ĠÑĥÐº": 6529,
      "Ġfaci": 6530,
      "ĠÐ´Ð²Ð¸Ð¶": 6531,
      "Ġrad": 6532,
      "Ġbuild": 6533,
      "Ð°Ð»Ð¾Ð¼": 6534,
      "ĠÑĦÐ¸Ð»ÑĮ": 6535,
      "edad": 6536,
      "aces": 6537,
      "Ġorder": 6538,
      "ĠSin": 6539,
      "Ġempresa": 6540,
      "à°Ĥà°¡à°²": 6541,
      "ĠÑĢÐ°Ð·Ð²Ð¸ÑĤÐ¸Ñı": 6542,
      "ĠÐ´Ð°Ð»ÑĮ": 6543,
      "ĠÐ¼ÐµÐ´Ð¸ÑĨÐ¸": 6544,
      "ĠÐ¿ÑĸÐ´Ð²Ð¸": 6545,
      "à±Ģà°·": 6546,
      "ĠÑĢÐ°ÑģÑģÐºÐ°Ð·": 6547,
      "ÑĮÐµ": 6548,
      "ĠÑĤÑĥÑĢ": 6549,
      "Ġà°ķà°·": 6550,
      "Ġusu": 6551,
      "Ġline": 6552,
      "Ġdentro": 6553,
      "à±ĩà°ĸ": 6554,
      "Ġsure": 6555,
      "ÑĢÐµÐ²": 6556,
      "Ġà°Ĩà°Ł": 6557,
      "Ð»Ð¾Ð½": 6558,
      "Ġcompany": 6559,
      "ublic": 6560,
      "ĠÐ¾ÑĩÐµÑĢÐµÐ´": 6561,
      "ĠÑĥÐºÑĢÐ°": 6562,
      "Ġà¤ľà¤¬à¤ķ": 6563,
      "ĠÐ°Ð´ÑĢÐµÑģ": 6564,
      "ĠÐ²Ð»Ð°ÑģÑĤÐ¸": 6565,
      "ĠÑģÐ¼Ð¾ÑĤ": 6566,
      "Ġintegr": 6567,
      "ĠÑģÐ¾Ð¿": 6568,
      "ĠÑħÐ²Ð¸": 6569,
      "Ġfuncion": 6570,
      "Ġless": 6571,
      "by": 6572,
      "Ð¾Ð²Ð°Ð½Ð¾": 6573,
      "ĠÐ´Ð¶": 6574,
      "Ġnight": 6575,
      "Ch": 6576,
      "ĠÑĢÐ¾ÑģÑĤ": 6577,
      "vil": 6578,
      "Ġgl": 6579,
      "ĠÑĢÑĸÐ·Ð½Ð¸Ñħ": 6580,
      "ane": 6581,
      "ĠÐºÐ¾Ð»Ð¸ÑĩÐµÑģÑĤÐ²Ð¾": 6582,
      "Ġveces": 6583,
      "à¥įà¤ªà¤¤": 6584,
      "ÐµÑģÑĤÑĮ": 6585,
      "ĠÐºÐ°Ñģ": 6586,
      "ĠÐ»ÐµÐ³ÐºÐ¾": 6587,
      "ÑĤÐ¸ÑĩÐ½Ð¾": 6588,
      "Ð¼ÐµÐ½ÑĤÐ°": 6589,
      "Ġà¤¨à¤ľà¤°": 6590,
      "Ġtele": 6591,
      "ĠÑĸÑģ": 6592,
      "Ġjug": 6593,
      "'ve": 6594,
      "ĠÑģÐ°Ð¼Ð¾": 6595,
      "ÑĳÐ¼": 6596,
      "atro": 6597,
      "à°¾à°¹à°¨": 6598,
      "ÑĩÐ¸Ð¹": 6599,
      "Ġà¤ªà¤¸": 6600,
      "Ġagua": 6601,
      "ĠUniversity": 6602,
      "ĠÑģÑĤÐ°Ð»Ð°": 6603,
      "eras": 6604,
      "à¤Ńà¤Ĺ": 6605,
      "à¤Ĥà¤µ": 6606,
      "ĠÑĤÐ¸Ñģ": 6607,
      "Ġview": 6608,
      "Ġtus": 6609,
      "atis": 6610,
      "untos": 6611,
      "08": 6612,
      "ĠÑĥÑĩÐ°Ñģ": 6613,
      "Ð»Ð¸Ðº": 6614,
      "Ġsimple": 6615,
      "ĠÑĪÐºÐ¾Ð»": 6616,
      "ched": 6617,
      "dition": 6618,
      "ÑĥÐºÐ°": 6619,
      "ĠÐ¾Ð´Ð½Ð¸Ð¼": 6620,
      "Ġgar": 6621,
      "ostr": 6622,
      "Ġdijo": 6623,
      "Ð´ÐµÐ¼": 6624,
      "ÑģÐºÑĸÐ»ÑĮÐºÐ¸": 6625,
      "ĠÐ´Ð¸Ð·Ð°": 6626,
      "ÑĢÑĥÐ½": 6627,
      "ories": 6628,
      "à°¿à°¯à°²": 6629,
      "Ùİ": 6630,
      "ĠÑģÑĤÐ°Ð½Ð¾Ð²": 6631,
      "dic": 6632,
      "ĠÑģÑĤÐ°Ð½Ð´": 6633,
      "enn": 6634,
      "ĠÐºÐ¾Ð½ÑĦ": 6635,
      "Ġdecl": 6636,
      "ibles": 6637,
      "Ð·Ð¸Ð½": 6638,
      "ĠÑģÑĤÐ°Ð»": 6639,
      "ĠÑģÑĥÑģÐ¿ÑĸÐ»ÑĮ": 6640,
      "ĠcompaÃ±": 6641,
      "Ġmedia": 6642,
      "ÐĴÑĭ": 6643,
      "ĠDr": 6644,
      "Ġmuchas": 6645,
      "Ð½Ð¸ÑĨÑĭ": 6646,
      "bol": 6647,
      "ĠÐ¾Ð´Ð½Ð¾Ð¹": 6648,
      "Ġblog": 6649,
      "ĠÐºÑĢ": 6650,
      "cido": 6651,
      "Ð®": 6652,
      "ĠÐ¿ÑĢÐ¸Ñģ": 6653,
      "ĠÐĲÐ²": 6654,
      "Ġà°Ĩà°ª": 6655,
      "Ġlevel": 6656,
      "ÑĥÐ¼Ð°": 6657,
      "ĠÐĿÐ¾Ð²": 6658,
      "à°Ĺà°¤": 6659,
      "ĠÐłÐ°Ð·": 6660,
      "ĠÐ¶ÐµÐ½ÑīÐ¸": 6661,
      "ĠÐŀÐ´Ð½Ð°ÐºÐ¾": 6662,
      "Ġà¤ĩà¤¨à¤ķ": 6663,
      "Ð±Ð¾ÑĢÐ°": 6664,
      "Ð¾Ð²Ð¶": 6665,
      "Ġverdad": 6666,
      "Ġsalud": 6667,
      "400": 6668,
      "39": 6669,
      "ĠÐ¿ÑĢÐ°ÑĨÑĸÐ²": 6670,
      "ĠÐ¾ÑģÑĸÐ±": 6671,
      "Ġpad": 6672,
      "Des": 6673,
      "Ġà°Ĩà°Ĺ": 6674,
      "portun": 6675,
      "osp": 6676,
      "Ġrealizar": 6677,
      "ĠThat": 6678,
      "ĠÐ¿Ð¾Ð»ÑĥÑĩÐ¸ÑĤÑĮ": 6679,
      "ĠÐ½Ð°ÑĪÐ¸Ñħ": 6680,
      "Ð½Ð°ÑĤ": 6681,
      "Ġalm": 6682,
      "icle": 6683,
      "Ġperm": 6684,
      "Ġà°¸à°¤": 6685,
      "ĠÐ´Ð¾Ð¼Ð°ÑĪ": 6686,
      "Ġà¤īà¤ªà¤²à¤¬": 6687,
      "va": 6688,
      "ÃŃculo": 6689,
      "orld": 6690,
      "Ġà¤¤à¤¹à¤¤": 6691,
      "Ġsever": 6692,
      "Ġsens": 6693,
      "Ð´Ð¸Ð²": 6694,
      "ĠChrist": 6695,
      "ÑĢÑĸÑĪ": 6696,
      "ĠÑİÑĢÐ¸Ð´Ð¸": 6697,
      "ĠÐ²Ð½Ð¸Ð¼Ð°Ð½Ð¸Ðµ": 6698,
      "à¤¿à¤²à¤¨": 6699,
      "lig": 6700,
      "ĠÑģÐ²Ð¾ÑĹÑħ": 6701,
      "Ġdir": 6702,
      "Ġindic": 6703,
      "à¥ĭà¤ķà¤°": 6704,
      "ĠÐĲÐ½Ð´": 6705,
      "ĠÑĤÐµÑĩÐµÐ½Ð¸Ðµ": 6706,
      "ÐµÐ´Ð°Ð³": 6707,
      "vi": 6708,
      "cep": 6709,
      "ĠÐ±ÐµÐ»": 6710,
      "193": 6711,
      "Ġproductos": 6712,
      "emente": 6713,
      "ĠnÃº": 6714,
      "Ġmisma": 6715,
      "à¤¾à¤ĩà¤ķ": 6716,
      "Ġmeet": 6717,
      "Ð½ÐµÑĢÐ³": 6718,
      "ĠÐ¿ÑĢÐ¾ÑĦÐµÑģÑģÐ¸": 6719,
      "Ð¾ÐºÑĢÐµÐ¼Ð°": 6720,
      "ÑĢÐ¾Ð²Ð°Ð½Ð¸Ðµ": 6721,
      "ĠBo": 6722,
      "ÐµÐºÑģ": 6723,
      "Ġsing": 6724,
      "ÑĪÐ¸ÑģÑĮ": 6725,
      "ĠÑĢÑĭÐ½": 6726,
      "Ð´ÐµÐ¹": 6727,
      "ĠÐ¾Ð³ÑĢÐ°": 6728,
      "à¥Ĥà¤ķ": 6729,
      "Ġà°ĸà°°": 6730,
      "ips": 6731,
      "ots": 6732,
      "à¤¾à¤²à¤¤": 6733,
      "Para": 6734,
      "ĠÑĩÐµÐ³Ð¾": 6735,
      "ony": 6736,
      "ĠÐ¿ÑĢÐµÐºÑĢÐ°Ñģ": 6737,
      "tail": 6738,
      "ĠÑĥÐ¿ÑĢÐ°Ð²Ð»ÑĸÐ½Ð½Ñı": 6739,
      "He": 6740,
      "ĠSte": 6741,
      "à¥Īà¤¸à¤²": 6742,
      "à¤¾à¤ªà¤¨": 6743,
      "Ġdeber": 6744,
      "ended": 6745,
      "ĠÑħÐ¾ÑĢÐ¾ÑĪÐ¾": 6746,
      "ĠEm": 6747,
      "Ġaud": 6748,
      "ĠÐ¿Ð¾ÑıÐ²": 6749,
      "ĠÐ²Ð½ÑĥÑĤÑĢ": 6750,
      "à°Ĥà°¤à°ķ": 6751,
      "Ð»Ð¾ÑĤ": 6752,
      "Ġcomunic": 6753,
      "ĠÐĽÑĮÐ²": 6754,
      "ĠOb": 6755,
      "Ġservicios": 6756,
      "ĠÐ¿ÐµÑĢÐµÑģ": 6757,
      "à¤¯à¤¨": 6758,
      "ÐµÐ½ÑĤÑĥ": 6759,
      "07": 6760,
      "ĠÑĥÑģÑĤ": 6761,
      "ÑħÑĥ": 6762,
      "Ð¾Ð¼Ð°Ð½": 6763,
      "ĠHo": 6764,
      "ĠÑĩÐ°ÑģÑĥ": 6765,
      "ĠsegÃºn": 6766,
      "ĠÐ¿Ð¾Ð²Ñĭ": 6767,
      "Ġnatural": 6768,
      "ĠÐºÐ°Ð¶Ð´ÑĭÐ¹": 6769,
      "ĠÐ´Ð¾Ð¿Ð¾Ð»Ð½Ð¸ÑĤÐµÐ»ÑĮ": 6770,
      "embers": 6771,
      "ĠÐ¼ÑĸÑģÑĤÐ°": 6772,
      "à°¤à°²": 6773,
      "ĠÑĥÑĩÐ°ÑģÑĤÑĮ": 6774,
      "Ð¼ÐµÐ¶": 6775,
      "Ġella": 6776,
      "Ġà¤¸à¤®à¤°": 6777,
      "ĠÑĦÑĸÐ·": 6778,
      "à°®à°°": 6779,
      "Ð¶Ñĸ": 6780,
      "04": 6781,
      "ĠÐ¼ÑĸÑģÑĤ": 6782,
      "Ġcalidad": 6783,
      "Ġfar": 6784,
      "ÑĩÐ°ÐµÑĤÑģÑı": 6785,
      "ÑĤÐ¸Ð²Ð½Ð¾": 6786,
      "ĠÑĸÐ´Ðµ": 6787,
      "ĠÐ¿ÑĸÐ²": 6788,
      "ĠÐ¾ÑĢÐ¸": 6789,
      "ĠÐ´Ð½ÐµÐ¹": 6790,
      "Ð²Ð¸Ñħ": 6791,
      "nect": 6792,
      "Ġà°®à°²": 6793,
      "ĠÐ·Ð´Ð°": 6794,
      "char": 6795,
      "ĠÐ´Ð²ÐµÑĢ": 6796,
      "ĠÑģÐ²Ð¾ÐµÐ³Ð¾": 6797,
      "ĠÑģÑĢÐ°Ð·Ñĥ": 6798,
      "ĠÐĴÐµÐ»Ð¸": 6799,
      "ibilidad": 6800,
      "ĠPara": 6801,
      "à¥Ĥà¤ļ": 6802,
      "Ġunivers": 6803,
      "Ġban": 6804,
      "Ġven": 6805,
      "Ġagr": 6806,
      "ĠÐ½Ð°Ð´Ðµ": 6807,
      ".m": 6808,
      "ilar": 6809,
      "ĠÑĢÐ°Ð¼ÐºÐ°Ñħ": 6810,
      "Ð¸Ð½Ð¸": 6811,
      "65": 6812,
      "ĠÐºÐ¾Ð½ÐºÑĢÐµÑĤ": 6813,
      "Ġhoras": 6814,
      "If": 6815,
      "Ð°Ð»Ñİ": 6816,
      "ira": 6817,
      "ĠÐ¿ÑĢÐ¸ÑģÑĥÑĤ": 6818,
      "ĠÐ´ÐµÐ»Ð°ÑĤÑĮ": 6819,
      "ĠÐ±Ð»Ð°Ð³Ð¾Ð´": 6820,
      "à¥įà¤µà¤ª": 6821,
      "Ð´Ð½Ð°": 6822,
      "Ġhour": 6823,
      "ĠFacebook": 6824,
      "ulo": 6825,
      "ĠServ": 6826,
      "ÐĴÑĸÐ´": 6827,
      "à¤¼à¥į": 6828,
      "ĠÐ¼Ð¸Ð»": 6829,
      "ÑĪÐ¸ÑĤÑĮ": 6830,
      "Ð¡Ð¢": 6831,
      "à¤¸à¤®": 6832,
      "ĠÐ³Ð¾ÑģÐ¿Ð¾Ð´Ð°ÑĢ": 6833,
      "ĠÑĤÐ¾ÑĤ": 6834,
      "ĠÑĢÐ°Ð·ÑĢÐ°Ð±Ð¾ÑĤ": 6835,
      "ĠÐ²Ð¸Ð¼": 6836,
      "Ð½Ð¸ÐºÐ°Ð¼": 6837,
      "Ġdata": 6838,
      "ĠÐ¿ÑĢÐµÐ´Ð»Ð°Ð³Ð°": 6839,
      "Ġdidn": 6840,
      "ĠÐ¿ÑĢÐµÐ´Ð¼ÐµÑĤ": 6841,
      "ÑĪÐ»Ð°": 6842,
      "ĠÐºÑĸÐ»ÑĮÐºÐ°": 6843,
      "ĠÑĩÐµÑĤ": 6844,
      "Ġstat": 6845,
      "Ġmain": 6846,
      "Ġtur": 6847,
      "Ð³Ð¾Ð²Ð¾ÑĢ": 6848,
      "ĠÐºÐ°ÑĩÐµÑģÑĤÐ²Ðµ": 6849,
      "à¥įà¤¤à¤µ": 6850,
      "Ġcuer": 6851,
      "ĠYork": 6852,
      "à¤¾à¤¨à¤¨": 6853,
      "Ġsum": 6854,
      "Ġgente": 6855,
      "Ġimportant": 6856,
      "Ġjob": 6857,
      "ĠÐ¾ÑĩÐ¸": 6858,
      "ĠÑıÐºÐ¾Ð³Ð¾": 6859,
      "ĠÐ±Ð¾Ð»ÐµÐ·": 6860,
      "Ġgob": 6861,
      "à¥Ģà¤®à¤¤": 6862,
      "ĠJul": 6863,
      "ĠÐ´ÐµÑıÑĤÐµÐ»ÑĮÐ½Ð¾ÑģÑĤÐ¸": 6864,
      "site": 6865,
      "lick": 6866,
      "ĠEspaÃ±a": 6867,
      "ĠÐ±Ð»Ð¸": 6868,
      "Ġsuc": 6869,
      "ĠÑĨÐ¸Ñħ": 6870,
      "à±įà°¯à°µà°¹": 6871,
      "Ġsac": 6872,
      "ases": 6873,
      "Ġà°Ĵà°ķà°Ł": 6874,
      "Ġdesarrollo": 6875,
      "ÐĲÐĿ": 6876,
      "Ġleft": 6877,
      "Ġdese": 6878,
      "ĠÐ¾ÑģÐ¾Ð±Ð¸ÑģÑĤ": 6879,
      "ÑĢÐ¾Ð¶": 6880,
      "à°ļà°²": 6881,
      "..Ċ": 6882,
      "ĠmÃ©": 6883,
      "Ã³x": 6884,
      "Ð°Ñĩ": 6885,
      "à¥įà¤°à¤¦à¤°": 6886,
      "ĠÐ±ÐµÑģ": 6887,
      "Ġclar": 6888,
      "ÑģÐ¾Ð»": 6889,
      "ÑĢÐ¾Ð±ÑĸÑĤ": 6890,
      "Ġsite": 6891,
      "ÑĢÐ°Ðº": 6892,
      "ĠÐºÐ¾ÑĤÐ¾ÑĢÐ¾Ð³Ð¾": 6893,
      "abilidad": 6894,
      "Ġdetermin": 6895,
      "à±ĩà°ªà°Ł": 6896,
      "à±įà°Łà°¡": 6897,
      "iest": 6898,
      "Ð´Ñĭ": 6899,
      "uando": 6900,
      "ĠÐºÐ¾Ð¿": 6901,
      "à¤¼à¥ĭà¤Ĥ": 6902,
      "à¥Ģà¤ıà¤¸": 6903,
      "à°¿à°ķà°°": 6904,
      "ĠÑĩÑĥÐ´": 6905,
      "Ġgrandes": 6906,
      "ÐµÐ½Ð½ÑĭÐ¹": 6907,
      "ĠÐ¾ÑĨÑĸ": 6908,
      "ÑĦÑĸÐºÐ°": 6909,
      "ĠÐ±ÑĭÑģÑĤÑĢÐ¾": 6910,
      "cle": 6911,
      "ĠÐ¾Ð±ÑĢÐ°ÑĤÐ¸": 6912,
      "Ġservice": 6913,
      "Ġlogr": 6914,
      "ÑĮÑĤÐµ": 6915,
      "irl": 6916,
      "ĠÐ´ÑĢÑĥÐ·": 6917,
      "Ġabs": 6918,
      "Ġeng": 6919,
      "ĠÐºÐ¾ÑĢÐ¿": 6920,
      "ĠAmerican": 6921,
      "Ð´Ð¸Ð½Ð°": 6922,
      "ĠÐ·Ð°Ð»ÐµÐ¶": 6923,
      "Ð·Ð°ÑĨÐ¸Ñı": 6924,
      "OM": 6925,
      "Ð·Ð¸Ð½Ð¾": 6926,
      "ÑİÑīÐµÐ¹": 6927,
      "ĠÐ¿Ð¾Ð¿ÐµÑĢÐµÐ´": 6928,
      "Ġaway": 6929,
      ".org": 6930,
      "ÑıÑĤÐ¸Ñı": 6931,
      "Ġcho": 6932,
      "witter": 6933,
      "uck": 6934,
      "ĠÐ¿Ð¾ÑıÑģ": 6935,
      "ÑĤÐ¸ÐºÐ°": 6936,
      "Ġuntil": 6937,
      "Ġley": 6938,
      "ĠÐŁÐ¾ÑĤ": 6939,
      "Ph": 6940,
      "ÑĥÑĤÑĤÑı": 6941,
      "ÑģÑĤÐ¸Ñĩ": 6942,
      "ĠÐĻ": 6943,
      "Ð¼Ð¸Ð½Ð¸ÑģÑĤÑĢÐ°": 6944,
      "Ð´Ð¶ÐµÐ½Ð½Ñı": 6945,
      "à°¾à°²à°ª": 6946,
      "ĠÑĥÑĩÐ°ÑģÑĤÐ¸": 6947,
      "ĠÐ½Ð°Ð»Ð¸ÑĩÐ¸": 6948,
      "ono": 6949,
      "Ð¼Ð¾ÑĤÑĢ": 6950,
      "ÑıÑĩ": 6951,
      "ĠÑģÑĤÑĢÐ¾Ð¸ÑĤÐµÐ»ÑĮ": 6952,
      "dows": 6953,
      "Ġà°¨à°Ĺà°°": 6954,
      "ÐŁÐ¾Ð´": 6955,
      "ĠÐ²ÑģÑĳ": 6956,
      "ĠaquÃŃ": 6957,
      "ÑĸÑĩÐ½Ð¸Ñħ": 6958,
      "Ð¾Ð³ÑĢÐ°ÑĦÐ¸": 6959,
      "à¥įà¤°à¤£": 6960,
      "ĠÑģÐ¿ÑĢÐ¸": 6961,
      "ĠÐ½ÐµÐ±Ð¾Ð»ÑĮ": 6962,
      "Ġcase": 6963,
      "Ġà°ĩà°·": 6964,
      "Ð¸ÑĩÐµÑģÐºÐ¸Ñħ": 6965,
      "Ð»ÐµÑĩ": 6966,
      "ĠÐ¾ÑĢÐ³Ð°Ð½ÑĸÐ·Ð°": 6967,
      "Ġdivers": 6968,
      "igu": 6969,
      "à¤Ĥà¤ĺ": 6970,
      "à°¾à°¥": 6971,
      "For": 6972,
      "ury": 6973,
      "ÑıÑģÑĮ": 6974,
      "ÑĭÑĤÐ°": 6975,
      "à¥īà¤ª": 6976,
      "icamente": 6977,
      "Ð»Ð°Ð´Ñĥ": 6978,
      "Ġcop": 6979,
      "ĠÐ¾Ð¿ÑĢÐµÐ´ÐµÐ»ÐµÐ½": 6980,
      "ÑģÐ»ÑĥÐ¶": 6981,
      "Ġdesarroll": 6982,
      "ĠÐ½ÐµÐ¾Ð±ÑħÑĸÐ´Ð½Ð¾": 6983,
      "load": 6984,
      "ĠÑģÐ¾Ð´ÐµÑĢÐ¶Ð°": 6985,
      "ĠÑĥÐ´Ð¾Ð±": 6986,
      "ĠÐ²Ð¸Ð³Ð»Ñı": 6987,
      "ĠAM": 6988,
      "à°ķà°Ł": 6989,
      "Ð¾ÐºÐ¾": 6990,
      "Ġvent": 6991,
      "Ġà¤ĸà¤¬à¤°": 6992,
      "Ġdich": 6993,
      "ĠÐ²Ð½ÐµÑģ": 6994,
      "ÑĩÐ½Ð¾Ð³Ð¾": 6995,
      "à¤¼à¥ĭ": 6996,
      "à¥Ģà¤Ĥ,": 6997,
      "ĠÑģÑĢÐµÐ´ÑģÑĤÐ²": 6998,
      "ĠÐ¿ÑĢÐ¾Ð²ÐµÐ´ÐµÐ½Ð½Ñı": 6999,
      "ĠÐ¼Ð¾Ð¶Ð»Ð¸Ð²ÑĸÑģÑĤÑĮ": 7000,
      "Ġfacil": 7001,
      "ÑĤÐ¸ÑĤÑĮ": 7002,
      "Ġped": 7003,
      "02": 7004,
      "Ð³Ð»": 7005,
      "ĠÑĢÐµÐºÐ¾Ð¼ÐµÐ½Ð´Ñĥ": 7006,
      "à±įà°ªà°·": 7007,
      "Ð¾Ð²Ð°ÑĤÐµÐ»ÑĮ": 7008,
      "ĠÐ´Ð»Ð¸": 7009,
      "ÑĥÐ²Ð°Ð»Ð°": 7010,
      "Ð¸Ð±Ð¾Ð»ÐµÐµ": 7011,
      "ott": 7012,
      "Ð°Ð»ÐµÐ¶": 7013,
      "Ð·Ñı": 7014,
      "Ġenter": 7015,
      "ĠÐ¿Ð¾Ð½Ð¸Ð¼Ð°": 7016,
      "Ġà¤ĳà¤¨à¤²": 7017,
      "ĠÐĴÐ°ÑĪ": 7018,
      "olÃ³g": 7019,
      "Ġold": 7020,
      "ĠPa": 7021,
      "ÑĨÐµÐ½ÑĤ": 7022,
      "ÑĢÐµÐ¹": 7023,
      "ĠÑģÐ°Ð¹ÑĤÐµ": 7024,
      "ĠÐ·Ð´ÑĸÐ¹ÑģÐ½Ñİ": 7025,
      "ĠComm": 7026,
      "à±ģà°§": 7027,
      "ĠÑĢÐ°Ð¹Ð¾Ð½": 7028,
      "ĠÐ±Ð»Ð¾Ðº": 7029,
      "à¥Ģà¤«": 7030,
      "Ġchildren": 7031,
      "Ġsl": 7032,
      "ĠSp": 7033,
      "à±įà°¤à°µ": 7034,
      "Ð»Ð¸ÐºÐ°": 7035,
      "thers": 7036,
      "à¥įà¤ķà¤°": 7037,
      "ĠÑĢÐ¾Ð·ÑĢÐ¾Ð±": 7038,
      "illo": 7039,
      "03": 7040,
      "ĠÐļÐ¸ÑĶ": 7041,
      "ĠÐ²ÐµÑĤ": 7042,
      "ota": 7043,
      "Ð±Ð¾Ð»": 7044,
      "ĠÐ¿Ð¾ÑģÑĤÐ°Ð²": 7045,
      "ission": 7046,
      "zÃ³n": 7047,
      "Ġ!": 7048,
      "ĠÑģÑĤÐ°ÑĤÐ¸": 7049,
      "ĠÐ²ÑģÑı": 7050,
      "Ð¼ÐµÐ½Ð¸": 7051,
      "ential": 7052,
      "Ġhuman": 7053,
      "ĠÑĤÐµÐºÑģÑĤ": 7054,
      "49": 7055,
      "ĠÐ¿ÑĢÐ¸Ð½Ð¸Ð¼Ð°": 7056,
      "ĠÐ´ÐµÐ½ÑĮÐ³Ð¸": 7057,
      "ÑĦÐµÑĢÐµÐ½": 7058,
      "ĠÑĥÐ´Ð°": 7059,
      "Ð³Ð¾ÑĢÐ¾Ð´": 7060,
      "ĠÐ¢Ð¾Ð¼Ñĥ": 7061,
      "ÑģÐºÐ¾Ðµ": 7062,
      "à¥įà¤Łà¤®": 7063,
      "Ġthing": 7064,
      "ands": 7065,
      "ÐµÐ´Ð¸Ð½": 7066,
      "uda": 7067,
      "77": 7068,
      "ĠÐ·Ð¼ÑĸÐ½": 7069,
      "à¥Ģà¤ĸ": 7070,
      "ĠÐ½Ð¸Ð¼Ð¸": 7071,
      "ĠÐ¡ÐµÑĢÐ³": 7072,
      "ĠÐ¿ÐµÑĢÑĸÐ¾Ð´": 7073,
      "Ġapar": 7074,
      "ĠÑģÑĤÐ°Ð»Ð¾": 7075,
      "Ġtit": 7076,
      "ala": 7077,
      "à¤ĩà¤¨": 7078,
      "ĠÐ³Ð°Ð»": 7079,
      "Ġbeh": 7080,
      "ĠÑħÑĥÐ´Ð¾Ð¶": 7081,
      "EL": 7082,
      "ĠÐºÐ¾ÑĤÐ¾ÑĢÐ¾Ðµ": 7083,
      "ĠEng": 7084,
      "ÐµÑĤÐ¾Ð¼": 7085,
      "medi": 7086,
      "Ð¾Ð·Ð½Ð°": 7087,
      "Ġapoy": 7088,
      "Ð»ÐµÐ½Ñĭ": 7089,
      "Ġspecial": 7090,
      "Ġexperience": 7091,
      "Ġconten": 7092,
      "ĠeconÃ³m": 7093,
      "Ġà°¬à°¹": 7094,
      "à¤¾à¤ł": 7095,
      "Ġgovernment": 7096,
      "Ġà°¶à°ķ": 7097,
      "à±ĩà°¤à°²": 7098,
      "Ġà¤§à¤¨": 7099,
      "à¥ĩà¤¦à¤¨": 7100,
      "Ð´Ð¸Ð²Ð¸": 7101,
      "Ġgest": 7102,
      "Ð»ÐµÑĢ": 7103,
      "Ð°ÑĢÑĸÐ²": 7104,
      "Ġur": 7105,
      "ĠÑģÐ²ÑıÑĤ": 7106,
      "ĠÑģÑĥÑĤ": 7107,
      "Ġfueron": 7108,
      "Ġstudents": 7109,
      "Ġà°¤à°¦": 7110,
      "Ġoriginal": 7111,
      "à¥ĭà¤Ĥ,": 7112,
      "ĠÐ²ÑħÐ¾Ð´": 7113,
      "alf": 7114,
      "Ġservicio": 7115,
      "ĠÑģÐ¾Ð±Ñĸ": 7116,
      "ĠÐ¼ÐµÐ½ÐµÐµ": 7117,
      "Ġgrupo": 7118,
      "Ð»Ð°Ð¼Ð¸": 7119,
      "ajor": 7120,
      "lor": 7121,
      "EC": 7122,
      "ðŁ": 7123,
      "ĠIm": 7124,
      "ĠÐºÑĸÐ»ÑĮÐºÑĸÑģÑĤÑĮ": 7125,
      "Ġreason": 7126,
      "ĠÐ·Ð°ÑĢÐ°Ð·": 7127,
      "Ġvari": 7128,
      "ÑĢÐµÐ·Ð¸Ð´": 7129,
      "à°¾à°¡à°¨": 7130,
      "Ð´Ð°ÐµÑĤ": 7131,
      "ÑīÐ°Ð´": 7132,
      "à±ĭà°·à°²": 7133,
      "ĠÐ´Ð¾Ð´Ð°ÑĤ": 7134,
      "Ġproyecto": 7135,
      "ĠniÃ±os": 7136,
      "alu": 7137,
      "ÑĸÐ·Ð½ÐµÑģ": 7138,
      "ĠÂ¡": 7139,
      "ĠÐ¾ÐºÑĢÐµÐ¼": 7140,
      "Ġperiod": 7141,
      "Ġsignific": 7142,
      "Ġpercent": 7143,
      "ĠÑģÐ¾Ðº": 7144,
      "uela": 7145,
      "Ġlabor": 7146,
      "à¤¾à¤ªà¤¸": 7147,
      "ÑīÐ°ÐµÑĤ": 7148,
      "ensa": 7149,
      "ĠÐ½Ð¾Ð²Ð¾Ð³Ð¾": 7150,
      "Ð·Ð½Ð°Ñĩ": 7151,
      "Ġable": 7152,
      "adora": 7153,
      "ÐµÑĤÑĮ": 7154,
      "ĠÐ´ÐµÐ²ÑĥÑĪ": 7155,
      "arÃ¡n": 7156,
      "iera": 7157,
      "ĠÐ¿Ð¾ÑĤÐ¾Ð¼": 7158,
      "ĠÐ·ÑĢÐ¾Ð±Ð¸ÑĤÐ¸": 7159,
      "ĠÐ¿ÑĢÐ¾ÑħÐ¾Ð´": 7160,
      "ending": 7161,
      "ĠÑĨÑĸÐºÐ°": 7162,
      "à¤¶à¤¨": 7163,
      "ĠÑģÐ¿ÐµÑĨÐ¸Ð°Ð»Ð¸ÑģÑĤ": 7164,
      "ĠÑĢÐ°Ð±Ð¾ÑĤÑĥ": 7165,
      "à°ľà°¨": 7166,
      "à±Ģà°µà°²": 7167,
      "Ġdra": 7168,
      "ÑıÐºÐ¸": 7169,
      "ĠÐ°Ñģ": 7170,
      "ĠÑĢÐµÐ°Ðº": 7171,
      "ym": 7172,
      "ÑĸÐ½Ð°": 7173,
      "ality": 7174,
      "à±Ĩà°²à°²": 7175,
      "ĠÐ±Ð¾ÑĢÐ¾": 7176,
      "âĢĻâĢĻ": 7177,
      "Ġrele": 7178,
      "ĠÑģÐ²ÑıÐ·Ð¸": 7179,
      "âĢĻre": 7180,
      "uales": 7181,
      "à±į:": 7182,
      "ĠfÃ¡": 7183,
      "ĠÐ°ÑĤ": 7184,
      "ĠÑģÐ¾Ð²ÑĢÐµÐ¼ÐµÐ½": 7185,
      "Ġlaw": 7186,
      "unci": 7187,
      "ared": 7188,
      "You": 7189,
      "Ġevent": 7190,
      "ĠÐ½ÐµÐ¼Ð°ÑĶ": 7191,
      "à°¾à°Łà°ķ": 7192,
      "ÑĩÐºÐ¸": 7193,
      "ĠÐ¼Ð¸ÑĢ": 7194,
      "Ð½ÐµÐ½Ð¸Ðµ": 7195,
      "Ġà°²à°Ń": 7196,
      "-f": 7197,
      "Ð²Ð°ÑĶÑĤÑĮÑģÑı": 7198,
      "umb": 7199,
      "Ġà°Ĩà°µ": 7200,
      "Ġcustom": 7201,
      "Ġarea": 7202,
      "Ġtell": 7203,
      "ĠÐ¾ÑĤÐ½Ð¾ÑĪ": 7204,
      "Ġpunto": 7205,
      "ĠÐ²Ð¸Ð±Ð¾ÑĢ": 7206,
      "Ġspeci": 7207,
      "Ġequip": 7208,
      "irm": 7209,
      "ÑĶÑĤÐµ": 7210,
      "à±Īà°ľ": 7211,
      "ĠÐ½ÐµÐ³Ð°": 7212,
      "ĠÐ¿Ð¾Ð½Ð°Ð´": 7213,
      "ĠÐ²Ð¸ÐºÐ¾ÑĢÐ¸ÑģÑĤÐ°Ð½Ð½Ñı": 7214,
      "Ð°Ð½Ð½ÑĭÐµ": 7215,
      "ĠÐ¿Ð¾Ð´Ð°ÑĤ": 7216,
      "Ġcourse": 7217,
      "ĠÐ¿Ð¾ÑĤÑĢÐµ": 7218,
      "ĠÑģÐ»Ð¾Ð²Ð°Ð¼Ð¸": 7219,
      "ĠtÃ©cn": 7220,
      "Ġlight": 7221,
      "ĠGener": 7222,
      "ĠÐ´ÑĥÑĪ": 7223,
      "à±įà°ķà°¨": 7224,
      "Ġapr": 7225,
      "à±ĭà°ļà°¨": 7226,
      "Ġresearch": 7227,
      "ĠDec": 7228,
      "ĠÐ¿Ð¾Ð·Ð²Ð¾Ð»ÑıÐµÑĤ": 7229,
      "ĠÐŁÐ¾ÑįÑĤÐ¾Ð¼Ñĥ": 7230,
      "ĠÐ·Ð°Ð¿Ð¸Ñģ": 7231,
      "ĠÐºÐ¾Ð´": 7232,
      "Ð°Ð²Ð¸ÑĤÑĮ": 7233,
      "à°¾à°¦à°¨": 7234,
      "blo": 7235,
      "Ð¸Ðµ": 7236,
      "ĠÐµÑĳ": 7237,
      "ĠÐ»ÑĸÐºÐ°ÑĢ": 7238,
      "Ġà¤²à¤Ĺà¤Ńà¤Ĺ": 7239,
      "ÐºÐ¾Ð²Ð¾ÑĹ": 7240,
      "ĠÐ¾Ð±ÑīÐµÑģÑĤÐ²": 7241,
      "Ð°Ð»ÑĮÐ½ÑĭÐ¼": 7242,
      "Ġgrow": 7243,
      "Ġname": 7244,
      "cimiento": 7245,
      "Ð¾Ð²Ð°ÑĤÑĮÑģÑı": 7246,
      "ĠÐ¾Ð±ÐµÑģÐ¿Ðµ": 7247,
      "ĠÑģÐ¾Ñģ": 7248,
      "unca": 7249,
      "ÐµÑĢÐ°Ð»ÑĮ": 7250,
      "ols": 7251,
      "à¤¿à¤µà¤°": 7252,
      "Ð»Ð°Ð²Ð°": 7253,
      "Òĳ": 7254,
      "itut": 7255,
      "ĠÐ¾ÐºÐ¾Ð»Ð¾": 7256,
      "-Ðº": 7257,
      "ÐŁÐ¾Ñģ": 7258,
      "Ġtermin": 7259,
      "ĠÐ¿ÐµÑĢÑĪ": 7260,
      "ĠÑĨÑĸÑĶÑĹ": 7261,
      "ÑĢÑĮ": 7262,
      "Ġinvol": 7263,
      "ĠÐ±ÑĥÐº": 7264,
      "ĠÑįÐºÑģÐ¿": 7265,
      "Ġnego": 7266,
      "Ð½ÑĶ": 7267,
      "ief": 7268,
      "iza": 7269,
      "ĠÐ¼ÑĸÐ¶Ð½Ð°ÑĢÐ¾Ð´": 7270,
      "ÑĢÐ³": 7271,
      "Ð»ÐµÐºÑģÐ°Ð½Ð´ÑĢ": 7272,
      "Ġdisp": 7273,
      "ĠÐµÑĦÐµÐºÑĤÐ¸Ð²": 7274,
      "ĠÑıÐ²Ð»ÑıÑİÑĤÑģÑı": 7275,
      ".-": 7276,
      "ĠÐ°Ð¼ÐµÑĢÐ¸Ðº": 7277,
      "ĠÐ¿ÑĢÐ°Ð²Ð¸Ð»Ð¾": 7278,
      "Ġhabit": 7279,
      "ĠÐ²ÑĸÐ¹ÑģÑĮ": 7280,
      "ĠÑĢÐ°Ð·Ð¾Ð¼": 7281,
      "ann": 7282,
      "Ġà°ªà°µà°¨": 7283,
      "Ġà¤Ĭà¤ªà¤°": 7284,
      "ĠÐ¿ÑĢÐ¾ÐµÐºÑĤ": 7285,
      "Ð¾ÑĢÐ¾Ð½Ð¸": 7286,
      "vers": 7287,
      "Ġcrit": 7288,
      "ÑĢÐ¸ÑĤÐ¸": 7289,
      "Ġ=": 7290,
      "iqu": 7291,
      "Ġgre": 7292,
      "ĠÐ¿Ð¾Ð²ÑĤÐ¾ÑĢ": 7293,
      "ĠÑģÐ¿ÑĢÐ°": 7294,
      "Ð¿ÑĥÑģÐº": 7295,
      "ÑĩÐ¸Ðº": 7296,
      "Ġmillion": 7297,
      "à°®à°¯": 7298,
      "Ð¿ÑĢÐ°": 7299,
      "Ġà¤ĸà¤¡": 7300,
      "Ġà°ªà°¤": 7301,
      "ete": 7302,
      "ĠÐ½Ð°Ð¿ÑĢÐ¸Ð¼ÐµÑĢ": 7303,
      "Ġnosotros": 7304,
      "ĠÐŁÐ¾ÑģÐ»Ðµ": 7305,
      "Ð½Ð¸ÑĨÑĸ": 7306,
      "Ġestaba": 7307,
      "Ġà¤Ńà¤µ": 7308,
      "ÐµÑĤÑĮÑģÑı": 7309,
      "ÑģÐºÐ¸Ð¼": 7310,
      "à¥ĩà¤¹à¤°": 7311,
      "lobal": 7312,
      "sh": 7313,
      "St": 7314,
      "Ġder": 7315,
      "Ġtecn": 7316,
      "Ġà°Ĩà°¤": 7317,
      "Ġunders": 7318,
      "ĠReg": 7319,
      "yr": 7320,
      "Ġchange": 7321,
      "ĠÐ´ÐµÐ¹ÑģÑĤÐ²": 7322,
      "à°Ĥ..": 7323,
      "ĠÑģÐ²Ð¾Ð³Ð¾": 7324,
      "Ġpan": 7325,
      "à¤Ĩà¤ª": 7326,
      "gel": 7327,
      "ĠÑıÐºÑĥ": 7328,
      "Ġstory": 7329,
      "Ġà¤¨à¤¯": 7330,
      "Ġwithin": 7331,
      "ÐµÑĢÑĸÐ³Ð°": 7332,
      "Ġchang": 7333,
      "And": 7334,
      "Ġà°¦à°ķ": 7335,
      "arch": 7336,
      "fter": 7337,
      "ÐµÐºÑĤ": 7338,
      "ler": 7339,
      "Ð²Ð¾ÑĹ": 7340,
      "Ð°ÐµÑĤ": 7341,
      "Ġfood": 7342,
      "ĠÐ·Ð»Ð¾": 7343,
      "ĠÑģÐ»Ð¾Ð²": 7344,
      "ĠÐ¿ÑĢÐ¾ÑĤÑıÐ³Ð¾Ð¼": 7345,
      "ency": 7346,
      "Ġà¤°à¤µ": 7347,
      "Ġigual": 7348,
      "Ġà¤®à¤§": 7349,
      ".âĢĿ": 7350,
      "Ð°Ð½Ñĥ": 7351,
      "Ġpues": 7352,
      "Ġma": 7353,
      "Ð¡ÑĤ": 7354,
      "ĠmÃ¡": 7355,
      "Ġsoft": 7356,
      "ÑĸÐºÐ°": 7357,
      "ÐĴÐ¸": 7358,
      "ether": 7359,
      "ĠJu": 7360,
      "ris": 7361,
      "Ġmoney": 7362,
      "ĠÑĢÐµÐ³Ð¸ÑģÑĤÑĢÐ°": 7363,
      "ĠÐ´ÑĥÐ¼Ð°": 7364,
      "191": 7365,
      "ĠNov": 7366,
      "192": 7367,
      "ĠÑĢÐ¾Ð»ÑĮ": 7368,
      "ĠÑĢÐ°Ñħ": 7369,
      "à°¯à°¸": 7370,
      "Ġmaking": 7371,
      "Ġfel": 7372,
      "à¥ĩà¤¶à¤ķ": 7373,
      "à¥Ģà¤Ĩà¤Ī": 7374,
      "Ġprovid": 7375,
      "ĠÐ½Ð¸ÐºÐ°": 7376,
      "ĠÐ¾ÑĢÐ³Ð°Ð½Ð¸Ð·Ð°ÑĨÐ¸Ð¸": 7377,
      "ĠÐ¿ÑĢÐ¸ÑħÐ¾Ð´": 7378,
      "Ð»Ð°Ðº": 7379,
      "Ð·Ñĥ": 7380,
      "ĠÐŀÐ½Ð°": 7381,
      "Ġà°Ńà°¯": 7382,
      "ĠÐ½Ð¸Ð¶": 7383,
      "ificaciÃ³n": 7384,
      "Ġbajo": 7385,
      "46": 7386,
      "ĠÐ·Ð±ÑĸÐ»ÑĮ": 7387,
      "Ð´ÐµÑĢ": 7388,
      "ĠÑģÑĩÐµÑĤ": 7389,
      "ĠÑģÐ°Ð¹ÑĤ": 7390,
      "yle": 7391,
      "Ġmedi": 7392,
      "Ġà¤ıà¤®": 7393,
      "Ð¾Ð¼ÐµÑĤ": 7394,
      "Ð¾Ð²Ð¸Ð¼Ð¸": 7395,
      "Ġincluso": 7396,
      "à¥ĭà¤²à¤¨": 7397,
      "ĠÐ¿ÑĢÐ¾ÑĨÐµÑģÑģ": 7398,
      "ÑĪÐ¸ÑĢ": 7399,
      "Ġvac": 7400,
      "ĠÑįÐ»ÐµÐ¼": 7401,
      "ÑĭÐ²Ð°ÐµÐ¼": 7402,
      "ĠÐĿÐ°Ð¿ÑĢÐ¸": 7403,
      "ĠÑĤÑĢÐµÐ½": 7404,
      "Ġcin": 7405,
      "Ġprincipal": 7406,
      "Ġpopular": 7407,
      "ĠSec": 7408,
      "à¥ĩà¤¬à¤¸": 7409,
      "Ð¼Ð°Ð³": 7410,
      "Ġaccess": 7411,
      "Ġair": 7412,
      "gÃºn": 7413,
      "Ġseguridad": 7414,
      "ĠÐ¼Ð°Ð¼": 7415,
      "à°¾à°ł": 7416,
      "ĠÐĹÐ°Ðº": 7417,
      "name": 7418,
      "ĠÐºÐ¾Ð¼Ð¿Ð»ÐµÐº": 7419,
      "Ð¾Ð»ÐµÑĤ": 7420,
      "Ð¿Ð°Ð½": 7421,
      "Ġabr": 7422,
      "Ġkind": 7423,
      "ĠÑĤÐ¾Ð³Ð´Ð°": 7424,
      "ĠÑĢÐ°Ð½": 7425,
      "Ð°ÑĤÐµÐ»Ð¸": 7426,
      "sel": 7427,
      "Ġvalor": 7428,
      "à¥Ģ.Ċ": 7429,
      "ĠÐ²ÑĭÑħÐ¾Ð´": 7430,
      "ĠÐ¾ÑĤÐ´ÐµÐ»ÑĮ": 7431,
      "ball": 7432,
      "ĠÐ·ÑĥÐ±": 7433,
      "ĠÐ³ÑĢÐ°Ð¶Ð´Ð°Ð½": 7434,
      "ĠÐ¼ÐµÑĤÐ°Ð»": 7435,
      "Ġinici": 7436,
      "ĠÐ²Ð¾Ð·Ð´Ñĥ": 7437,
      "à°Ĥà°ĸ": 7438,
      "ĠÐĳÐ¾Ð³": 7439,
      "Ġarr": 7440,
      "ĠÐ¿ÐµÑĢÐµÐ¿": 7441,
      "à¥ģà¤ľ": 7442,
      "ĠÐ²Ð½ÐµÑĪ": 7443,
      "ĠÐ¸Ñİ": 7444,
      "ĠÐ²ÑĸÐ´Ð´Ñĸ": 7445,
      "ĠÑĢÐµÐ±ÐµÐ½ÐºÐ°": 7446,
      "Ġimpro": 7447,
      "ÐµÐ²Ð¾Ð¹": 7448,
      "Ġbit": 7449,
      "ĠÑĤÑĢÐµÐ±Ð°": 7450,
      "à±įà°²à°¤": 7451,
      "à±Īà°¡": 7452,
      "ĠÐ²ÐµÐ´ÑĮ": 7453,
      "ids": 7454,
      "Ġhon": 7455,
      "ÑĥÑģÑĤÐ¸": 7456,
      "ĠBro": 7457,
      "Ð·Ð°Ð´": 7458,
      "Ð²Ð°Ð¶": 7459,
      "Ġempresas": 7460,
      "Ġcasi": 7461,
      "ĠÐ¾ÑĤÑģÑĥÑĤ": 7462,
      "à¥ĩà¤ļ": 7463,
      "ĠÐļÐ¾ÑĢ": 7464,
      "Ġwhy": 7465,
      ");Ċ": 7466,
      "Ġcame": 7467,
      "'ll": 7468,
      "ĠÑģÐ²Ð¾Ð±Ð¾Ð´": 7469,
      "Ġaseg": 7470,
      "ĠDep": 7471,
      "à±įà°İà°¸": 7472,
      "ĠAb": 7473,
      "Ġà¤¸à¤¦à¤¸": 7474,
      "cional": 7475,
      "arÃŃa": 7476,
      "ĠÑĢÐ°ÑģÐ¿Ð¾Ð»Ð¾Ð¶": 7477,
      "Ð¾Ð²Ð¸Ð½Ð¸": 7478,
      "icit": 7479,
      "ĠÐ¿Ð¾ÑģÐ°Ð´": 7480,
      "ÑĤÐ¸Ð²Ð½Ð¾Ð³Ð¾": 7481,
      "Ð¼Ð¾Ñģ": 7482,
      "ĠÑĪÐºÑĸ": 7483,
      "ĠÑģÐ¾Ð¾Ð±Ñī": 7484,
      "Ġtimes": 7485,
      "Ð½Ð¸Ð½": 7486,
      "osa": 7487,
      "ĠÑĦÐ°ÐºÑĤÐ¾ÑĢ": 7488,
      "ready": 7489,
      "à¥ĩĊ": 7490,
      "unda": 7491,
      "Ð¾Ð»ÑĮÐºÑĥ": 7492,
      "ĠÐ°Ð»ÑĮ": 7493,
      "Ġhaber": 7494,
      "Ġmujeres": 7495,
      "ĠÑģÐµÐ·": 7496,
      "Ġdol": 7497,
      "Ġfig": 7498,
      "jas": 7499,
      "ĠprÃ³x": 7500,
      "Ð³Ð°ÑĤÑĮ": 7501,
      "Ð½ÑĮÐ¾Ð¼Ñĥ": 7502,
      "ĠÐ¿ÑĢÐ¸Ð±": 7503,
      "ĠÐ¿Ð°Ð½": 7504,
      "ÑĸÐ¶": 7505,
      "Ġever": 7506,
      "ĠÐºÐ°Ð±": 7507,
      "Ġcalled": 7508,
      "ativas": 7509,
      "ified": 7510,
      "ĠÐ¼Ð¾Ð²": 7511,
      "Ġà°°à°µ": 7512,
      "ĠÐ·Ð¼ÑĸÐ½Ð¸": 7513,
      "cript": 7514,
      "ÑĦÐ°": 7515,
      "ĠÐ¿Ð¾ÑıÐ²Ð¸": 7516,
      "ĠÑģÑĤÐ¾Ñģ": 7517,
      "Ġprot": 7518,
      "ĠÑģÐ¿ÑĸÐ»ÑĮ": 7519,
      "Ġencontrar": 7520,
      "ĠÐ¹Ð¾Ð¼Ñĥ": 7521,
      "ray": 7522,
      "ĠÑĥÑģÑĤÑĢÐ¾Ð¹": 7523,
      "ĠMo": 7524,
      "à¤īà¤¨": 7525,
      "à°¿à°®à°°": 7526,
      "à°ħà°¨": 7527,
      "Ġlat": 7528,
      "ĠÑģÐ²ÐµÑĤ": 7529,
      "Ð½Ð¸ÑĨÐ°": 7530,
      "Ð¿Ð»Ð°": 7531,
      "artment": 7532,
      "ÑĩÐ¸Ð»Ð¸": 7533,
      "Ġà¤¨à¤Ī": 7534,
      "ĠÐ²ÑĭÑģÑĤÑĥÐ¿": 7535,
      "ĠÐ¿Ð¾Ð¼ÐµÑī": 7536,
      "ÑĩÐµÐ½Ð¾": 7537,
      "ÑĸÑĩÐ½Ñĸ": 7538,
      "oma": 7539,
      "ecer": 7540,
      "ĠÐ½Ð°Ð·Ð²Ð°": 7541,
      "ĠÐ²Ð½ÑĥÑĤÑĢÑĸÑĪ": 7542,
      "ĠÑĢÐµÐ¹": 7543,
      "Ġprovide": 7544,
      "iana": 7545,
      "à¤Ĺà¤²": 7546,
      "gether": 7547,
      "ÐµÐ´Ð°": 7548,
      "Ġà¤°à¤ķ": 7549,
      "ÑģÑĮÐºÐ¸Ð¼": 7550,
      "ĠÐ¸ÑĤ": 7551,
      "à¥ĩà¤ĸà¤¤": 7552,
      "ĠÐ²Ð¸Ð²": 7553,
      "Ð±Ð¾Ð²": 7554,
      "Ġpolit": 7555,
      "ube": 7556,
      "Ð¾Ð½ÑĸÐ²": 7557,
      "ĠÑĤÑĢÐ°Ð½ÑģÐ¿Ð¾ÑĢÑĤ": 7558,
      "-Ð´": 7559,
      "ĠÑģÐ¸Ð¼Ð¿ÑĤÐ¾Ð¼": 7560,
      "ĠÐ»ÑİÐ±Ð¾Ð²": 7561,
      "ĠespaÃ±": 7562,
      "ÑĨÑĸÐ¹Ð½Ð¸Ñħ": 7563,
      "âĢ¦âĢ¦": 7564,
      "ĠMy": 7565,
      "Ġhemos": 7566,
      "ĠJan": 7567,
      "ĠWeb": 7568,
      "¤ĥ": 7569,
      "à¤ĥ": 7570,
      "à±ģà°¬à°¡": 7571,
      "ÑĢÐ¸Ð¸": 7572,
      "ports": 7573,
      "Ġà¤¸à¤ª": 7574,
      "rea": 7575,
      "ĠÑģÐ¾Ð²ÐµÑĢÑĪÐµÐ½": 7576,
      "Ð¾Ð»ÑĮÐ½Ð¾": 7577,
      "Ð¾ÑıÑĤÐµÐ»ÑĮ": 7578,
      "ĠMc": 7579,
      "à¥īà¤Ł": 7580,
      "isl": 7581,
      "Ð³Ð°Ð´Ð°": 7582,
      "Ġworking": 7583,
      "Ġluego": 7584,
      "Ġà°®à°¨à°¸": 7585,
      "à±įà°¤à°Ĺ": 7586,
      "gent": 7587,
      "ĠRep": 7588,
      "Ġenough": 7589,
      "ĠÐ¼Ð¸Ð½ÑĥÑĤ": 7590,
      "ĠÐ¿ÑĢÐµÐ¼": 7591,
      "Ð¾Ð²ÐµÑĢ": 7592,
      "Ġcapital": 7593,
      "ĠÐĶÐ¾Ð½": 7594,
      "ĠÐ´Ð¾Ð·Ð²Ð¾Ð»Ñı": 7595,
      "cording": 7596,
      "ÑĤÐ¸ÑĩÐ½Ð¸Ñħ": 7597,
      "ĠState": 7598,
      "à¥įà¤¯à¤ķà¤¤": 7599,
      "ĠÐ¿Ð¾ÑĢÐ°": 7600,
      "ÑģÑĤÐ²ÐµÐ½Ð½Ð¾": 7601,
      "Ð½ÑıÑĤÑĤÑı": 7602,
      "Ð¸ÐºÐ°": 7603,
      "ĠÐ¾ÑĤÐ¼ÐµÑĤÐ¸": 7604,
      "Ġx": 7605,
      "ĠÐ·Ð°ÐºÐ°Ð·": 7606,
      "ĠÐ·Ð½Ð°ÐºÐ¾Ð¼": 7607,
      "ÑĩÐ¸Ñģ": 7608,
      "mero": 7609,
      "ĠÐ²ÑĸÐ´Ñĩ": 7610,
      "ÑģÑĮÐ¾Ð³Ð¾": 7611,
      "ÐļÐ¾Ð¼": 7612,
      "Ġestr": 7613,
      "Ð¾Ð¶Ð´ÐµÐ½Ð¸Ñı": 7614,
      "Ð¿ÑĢÐ¾": 7615,
      "ĠÐ¾Ð±Ð¾ÑĢÑĥÐ´": 7616,
      "ÑĤÑĥÑĢÑĥ": 7617,
      "ĠÐºÐ¾Ð½ÑģÑĥÐ»ÑĮ": 7618,
      "ĠÑĢÐµÐ³Ñĸ": 7619,
      "ĠÐŁÑĸÐ´": 7620,
      "ĠÑĢÐ¾Ð·Ð³Ð»Ñı": 7621,
      "Ġmembers": 7622,
      "à¥įà¤®à¤ķ": 7623,
      "Ġà°¤à°¨à°ķ": 7624,
      "ĠComp": 7625,
      "Ġroom": 7626,
      "Ð½Ð¾Ð²Ð¸": 7627,
      "ĠÐ²Ð¸Ð´ÐµÐ¾": 7628,
      "ĠÐºÐ¾Ð»ÑĮ": 7629,
      "Ġcontrib": 7630,
      "ĠÐ¾Ð±ÑģÐ»Ñĥ": 7631,
      "à¥Ģà¤Ľ": 7632,
      "ÑĤÐ¸Ð¸": 7633,
      "Ð¾Ð±ÑĤÐ¾": 7634,
      "à±ģà°Ńà°µ": 7635,
      "ET": 7636,
      "ÑĤÐ¸Ðº": 7637,
      "Ġentr": 7638,
      "ĠÐ½ÐµÐ·Ð°": 7639,
      "ĠÐ±ÑİÐ´Ð¶ÐµÑĤ": 7640,
      "Ð¾ÑĢÐ¾Ð´": 7641,
      "ordin": 7642,
      "ĠÐ½Ð¸ÑĩÐµÐ³Ð¾": 7643,
      "Ġside": 7644,
      "à¤Łà¤ķ": 7645,
      "à¤łà¤¨": 7646,
      "ĠÐ·Ð°ÐºÐ¾Ð½Ð¾Ð´Ð°Ð²": 7647,
      "ÑĸÑĶÑİ": 7648,
      "irÃ¡": 7649,
      "ĠPart": 7650,
      "Ġampl": 7651,
      "47": 7652,
      "ÑĤÑĶ": 7653,
      "ĠÐ½Ð°Ð»Ð¾Ð³": 7654,
      "Ð¶Ð¸Ð²": 7655,
      "uls": 7656,
      "Ġproced": 7657,
      "Ð²Ð°ÐµÑĤ": 7658,
      "Ð¸ÑĩÐµÑģÐºÐ¾Ð¹": 7659,
      "ĠÑĤÐ¾Ð»": 7660,
      "Ġindividual": 7661,
      "Ġcountry": 7662,
      "Ð¾Ð²Ð°Ð½Ð¸Ñħ": 7663,
      "Ġà¤ħà¤¦": 7664,
      "ÑĤÐ°Ð»": 7665,
      "à±ģà°µà°²": 7666,
      "°Ĵ": 7667,
      "à°Ĵ": 7668,
      "ÐµÑĤÐµÐ»ÑĮ": 7669,
      "ĠÐ¾ÑģÐ²ÑĸÑĤÐ¸": 7670,
      "gas": 7671,
      "ÑģÐ¾Ð»ÑİÑĤ": 7672,
      "ĠGod": 7673,
      "ĠÐºÐ¾Ð¼Ð°Ð½Ð´": 7674,
      "ÑĩÐ°ÑĤ": 7675,
      "ĠÑħÐ°ÑĢÐ°ÐºÑĤÐµÑĢÐ¸ÑģÑĤ": 7676,
      "ĠÐĴÐ¾": 7677,
      "Ġà°ļà°ķ": 7678,
      "Ġà°ħà°¸à°²": 7679,
      "ÐĺÐ½": 7680,
      ".ru": 7681,
      "ĠÑģÐ°Ð´": 7682,
      "Ð»Ð¸ÑĤ": 7683,
      "Ġinn": 7684,
      "Ġexperiencia": 7685,
      "RO": 7686,
      "Ð¯ÐºÑīÐ¾": 7687,
      "ĠÐ´Ð¾ÐºÑĥÐ¼ÐµÐ½ÑĤÐ°": 7688,
      "Ð¾ÑĩÐ°": 7689,
      "Ġpag": 7690,
      "Ġà°ħà°®à°²": 7691,
      "Ð³Ð°ÑĢ": 7692,
      "itch": 7693,
      "ĠRed": 7694,
      "pace": 7695,
      "ged": 7696,
      "ĠÐ¸Ð·Ð±": 7697,
      "Ġexpres": 7698,
      "Ġoblig": 7699,
      "Ġcook": 7700,
      "ÑİÑīÐ¸Ð¼": 7701,
      "arlo": 7702,
      "ĠÐºÐ²ÑĸÑĤ": 7703,
      "ĠWhat": 7704,
      "ĠÐ²Ð¾Ð´Ñĭ": 7705,
      "ĠÑģÐ¼Ð¾Ð¶": 7706,
      "ĠÐ²ÑĤÑĢÐ°": 7707,
      "hib": 7708,
      "gra": 7709,
      "ajes": 7710,
      "ĠÐºÐ¾Ð¼Ð¿Ð°Ð½ÑĸÑĹ": 7711,
      "ilo": 7712,
      "ĠÐ²Ð¼ÐµÑģÑĤÐµ": 7713,
      "Ġacuerdo": 7714,
      "erte": 7715,
      "ĠÐ¶Ð¸Ð²Ð¾ÑĤ": 7716,
      "ĠÑįÐºÑģÐ¿ÐµÑĢ": 7717,
      "Ġpuedes": 7718,
      "Ġsector": 7719,
      "posit": 7720,
      "ĠÐ´Ð¾Ð»Ð¶Ð½Ð°": 7721,
      "ĠÐºÐ°ÐºÐ¾Ð¹": 7722,
      "à¥ĩà¤ĤĊ": 7723,
      "Ð¸ÑĤÑĭ": 7724,
      "ĠÐ´ÑĥÑħÐ¾Ð²": 7725,
      "imas": 7726,
      "ĠÐļÐ°ÑĢ": 7727,
      "aring": 7728,
      "ĠÐ§ÑĤÐ¾": 7729,
      "Ġlater": 7730,
      "Ġlado": 7731,
      "ÑĨÑĥ": 7732,
      "ĠÐ±ÑĸÐ·Ð½ÐµÑģ": 7733,
      "ÑĥÐ´Ð¸": 7734,
      "Ġcommunity": 7735,
      "Ġcumpl": 7736,
      "Ġpodemos": 7737,
      "ĠÐ´ÐµÐ¿ÑĥÑĤÐ°ÑĤ": 7738,
      "42": 7739,
      "Ġshort": 7740,
      "à¥įà¤®à¤ļ": 7741,
      "Ġà°İà°¤": 7742,
      "250": 7743,
      "ĠAut": 7744,
      "Ġvan": 7745,
      "ĠÑħÐ¾Ð·Ñı": 7746,
      "Ġposit": 7747,
      "ÑĢÐ´": 7748,
      "ove": 7749,
      "Ġemple": 7750,
      "ĠÐºÑĥÐ»ÑĮÑĤÑĥÑĢ": 7751,
      "Ġwr": 7752,
      "ĠÑıÐºÐµ": 7753,
      "ÑĥÐ²Ð°ÑĤÐ¸ÑģÑı": 7754,
      "ÑīÑĳ": 7755,
      "ĠÐ¿ÐµÑĢÐµÐ²Ð°": 7756,
      "cing": 7757,
      "So": 7758,
      "ĠÐ¼Ð¼": 7759,
      "Ġ%": 7760,
      "ĠÑĤÐµÑĢÐ¸ÑĤÐ¾ÑĢÑĸÑĹ": 7761,
      "Ð½Ð°Ð¹": 7762,
      "ĠÐ¿Ð¾Ð²ÐµÐ´": 7763,
      "ĠÑĢÐ¾ÐºÐ¸": 7764,
      "ÑĢÐµÑĪ": 7765,
      "ĠÐ¿ÑĢÐ°Ð²Ð¸Ð»ÑĮÐ½Ð¾": 7766,
      "âĤ¬": 7767,
      "ĠÑģÐ²ÑĸÐ¹": 7768,
      "ĠsituaciÃ³n": 7769,
      "Ð½Ð°Ð¼": 7770,
      "Ġmem": 7771,
      "ĠÑıÑĢ": 7772,
      "ĠÐ¾ÑĢÐ³Ð°Ð½ÑĸÐ·Ð°ÑĨÑĸÑĹ": 7773,
      "ÑĪÐ¸ÑĤÐ¸": 7774,
      "Ġleast": 7775,
      "Ġlooking": 7776,
      "Ġempe": 7777,
      "Ġpalab": 7778,
      "ĠÑĩÐ¸ÑģÐ»Ðµ": 7779,
      "ivas": 7780,
      "Ġà°Ĩà°¸à°ķ": 7781,
      "Ġcarr": 7782,
      "ĠÑĢÐ¾Ð±Ð¾ÑĤÑĥ": 7783,
      "Ġllegar": 7784,
      "à¤§à¤°": 7785,
      "Ð¡Ð¿": 7786,
      "ĠprÃ¡ct": 7787,
      "ĠÑĤÐµÑĢÐ°": 7788,
      "Ġdone": 7789,
      "Ġà°ĩà°¬": 7790,
      "Ġenfer": 7791,
      "example": 7792,
      "Ġapplic": 7793,
      "ither": 7794,
      "ĠÑĢÐ¾Ð·Ð¿Ð¾Ð²": 7795,
      "ĠÑģÐ²Ð¾Ðµ": 7796,
      "Ġà°Ĺà°°": 7797,
      "ospital": 7798,
      "ally": 7799,
      "ery": 7800,
      "ĠÐ²Ðµ": 7801,
      "ills": 7802,
      "ĠÐ¼ÑĸÑģÑĨÑı": 7803,
      "ĠÑĩÐ¸Ð½Ð¾Ð¼": 7804,
      "Ġhaving": 7805,
      "ĠÑĤÐ°ÐºÐ¾Ðµ": 7806,
      "à±Īà°Ĺ": 7807,
      "Ġorden": 7808,
      "ĠSer": 7809,
      "ÐķÐĿ": 7810,
      "ĠÐ´Ð¾ÑģÑĤÐ°Ð²": 7811,
      "à¥ģà¤¬à¤¹": 7812,
      "ĠaÃºn": 7813,
      "ĠÐ¤ÑĢÐ°Ð½": 7814,
      "ĠÑģÑİ": 7815,
      "ĠÐ½ÐµÐ¿ÑĢÐ¸": 7816,
      "Ġvuel": 7817,
      "Ã¡p": 7818,
      "ĠÐļÐ¸ÑĹÐ²": 7819,
      "à¤¿à¤ľà¤¨": 7820,
      "Ġsuccess": 7821,
      "ised": 7822,
      "Ð°Ð»Ð¸ÑģÑı": 7823,
      "Ð½ÑıÑı": 7824,
      "Ġtax": 7825,
      "ÑĸÑĤÑĮ": 7826,
      "ĠÑĢÐ°ÑħÑĥÐ½": 7827,
      "Ġà°ļà°Ł": 7828,
      "ĠÐ²Ð½ÑĥÑĤÑĢÐµÐ½": 7829,
      "ĠÐ´Ð¾ÑģÑıÐ³": 7830,
      "ĠÐ¶Ð¾Ð²": 7831,
      "ĠÑĢÐ¾Ð±Ð¾ÑĤ": 7832,
      "ÐµÐ½ÐºÐ¾": 7833,
      "à¥ĪĊ": 7834,
      "Ġgas": 7835,
      "ĠÑĤÑĢÐ¾": 7836,
      "Ġhombre": 7837,
      "Ġdestac": 7838,
      "atic": 7839,
      "ĠGe": 7840,
      "Ð²Ð¸Ð½": 7841,
      "ĠÑģÑĤÑĢÐ°ÑĤÐµÐ³": 7842,
      "Ð½Ð¸ÑĤÐµ": 7843,
      "Ġalready": 7844,
      "ĠÐ¿Ð¾ÐºÐ¸": 7845,
      "à¥Īà¤łà¤ķ": 7846,
      "ĠÐĲÐ´": 7847,
      "à¥ĭà¤·à¤£": 7848,
      "-Ð¼": 7849,
      "ÑĢÐ¸Ð²": 7850,
      "Ġmiss": 7851,
      "iÃ©n": 7852,
      "ĠÐ²Ð»Ð¸Ñı": 7853,
      "Ġmercado": 7854,
      "Ġvo": 7855,
      "ĠÐ²Ð¸ÐºÐ¾Ð½Ð°": 7856,
      "respon": 7857,
      "Ġcambio": 7858,
      "ĠEurope": 7859,
      "ĠÐ¿ÑĢÐ¸Ð¼Ñĸ": 7860,
      "ÑģÑĤÐµ": 7861,
      "Ð°Ð»ÑĮÐ½Ñĥ": 7862,
      "Ġproblemas": 7863,
      "ĠÐºÐ°Ð·Ð¸Ð½Ð¾": 7864,
      "@example": 7865,
      "ĠÐ²ÑģÑİ": 7866,
      "à¤¾à¤ĩà¤¡": 7867,
      "Ġlik": 7868,
      "ĠÑĢÑĥÐºÐ¸": 7869,
      "Ġproper": 7870,
      "Ð°Ð½ÑĸÑĤ": 7871,
      "ĠÐ²Ð¾Ð·Ð½Ð¸Ðº": 7872,
      "Ġnombre": 7873,
      "Ġà°Ĵà°ķà°°": 7874,
      "ivil": 7875,
      "iano": 7876,
      "Ð¾Ð½Ñĭ": 7877,
      "Ġtenemos": 7878,
      "lished": 7879,
      "Ġtogether": 7880,
      "ĠÐ²Ð»Ð°Ð´": 7881,
      "IA": 7882,
      "ĠDis": 7883,
      "120": 7884,
      "Ð¿Ð½Ñı": 7885,
      "vent": 7886,
      "Ġveh": 7887,
      "ÑĩÐ¸Ð¼": 7888,
      "Ð¼Ð¸ÑĤ": 7889,
      "ÑĩÐµÐ½Ñĸ": 7890,
      "95": 7891,
      "Ġsan": 7892,
      "Ġà°ıà°ķ": 7893,
      "ĠÑĢÐ°ÑģÐ¿ÑĢÐ¾ÑģÑĤ": 7894,
      "ÑĸÑĩÐ½Ð¾Ð³Ð¾": 7895,
      "joy": 7896,
      "ederal": 7897,
      "°Ĩà°°": 7898,
      "à°Ĩà°°": 7899,
      "à¤¾à¤¹à¤¨": 7900,
      "Ġbal": 7901,
      "ĠÐłÐ¾Ð·": 7902,
      "à¥ĥà¤¦": 7903,
      "ĠÐ²ÑĭÑĪÐµ": 7904,
      "ĠÐ¿Ð¾Ð»Ð½Ð¾ÑģÑĤÑĮÑİ": 7905,
      "à¥ģà¤Ĩà¤¤": 7906,
      "ances": 7907,
      "ĠÐ±Ð»Ð°Ð³": 7908,
      "uff": 7909,
      "ability": 7910,
      "itas": 7911,
      "ĠÐ¼Ð°Ð»Ð¾": 7912,
      "ĠÑĦÑĥÑĤ": 7913,
      "Ġcover": 7914,
      "Ð½ÑıÑĤÐ¸": 7915,
      "ĠÐ²ÐµÑī": 7916,
      "Ġemplo": 7917,
      "ÑģÑĤÐ¾Ñı": 7918,
      "à°Ĥà°Ĺà°¤": 7919,
      "Ġà°¨à°²": 7920,
      "ĠÑģÑĤÐµÐ½": 7921,
      "Ð´Ð°ÑĤ": 7922,
      "à°Ĥà°ļà°¨": 7923,
      "ĠÐ¼Ð¸Ð½Ñĥ": 7924,
      "ĠÐºÐ¾Ð½ÑĤÐ°Ðº": 7925,
      "iso": 7926,
      "ÑĩÐ¸Ð½Ð¸": 7927,
      "ĠÐ·Ð½": 7928,
      "ĠÐ¾ÑĦÐ¸ÑĨÐ¸": 7929,
      "ĠÑģÑĤÑĢÐ°Ð½Ñĭ": 7930,
      "Ð·Ñĸ": 7931,
      "enz": 7932,
      "pes": 7933,
      "à°Łà°°": 7934,
      "ĠNe": 7935,
      "ients": 7936,
      "ÑĪÐ°ÐµÑĤ": 7937,
      ".ÐĴ": 7938,
      "aps": 7939,
      "ĠÑĦÐ¸Ð½Ð°Ð½Ñģ": 7940,
      "not": 7941,
      "Ġà°¬à°°": 7942,
      "ĠÐ¿Ð¾ÑĤÑĸÐ¼": 7943,
      "ĠÑįÑĤÐ¸Ð¼": 7944,
      "ĠÐ³ÑĢÐ¸Ð²": 7945,
      "ream": 7946,
      "à°¾à°®à°°": 7947,
      "lection": 7948,
      "dos": 7949,
      "Ġalgunas": 7950,
      "ĠÐ´ÑĢÑĥÐ³Ð¾Ð¹": 7951,
      "ÑĢÐ¾Ñİ": 7952,
      "Ġelement": 7953,
      "ÑĥÑĢÐ°": 7954,
      "Ġnet": 7955,
      "ĠDo": 7956,
      "ĠOne": 7957,
      "ĠÐ¿Ð»Ð°Ð½Ð¸": 7958,
      "Ġmeses": 7959,
      "ÐµÐ´Ð°Ð³Ð¾Ð³": 7960,
      "ĠÐ½Ð¾Ñĩ": 7961,
      "Ġà°¹à°°": 7962,
      "à±Īà°®": 7963,
      "ĠÐ¾ÑĤÐ»Ð¸Ñĩ": 7964,
      "ho": 7965,
      "izo": 7966,
      "à±ĩà°Łà°°": 7967,
      "ÑģÑĤÑĢÑĥÐ¼ÐµÐ½ÑĤ": 7968,
      "Ġdispon": 7969,
      "ait": 7970,
      "Ġconocer": 7971,
      "Ð¾Ð´Ð°ÑĤÐµÐ»ÑĮ": 7972,
      "ĠÐ¾Ð·": 7973,
      "à±įà°¤à°¨": 7974,
      "Ġà¤ľà¤¨à¤¤": 7975,
      "US": 7976,
      "ĠAct": 7977,
      "Ġà°¦à°¶": 7978,
      "Ð»ÐµÐºÐ°": 7979,
      "ĠÐ°ÐºÑĤÐ¸": 7980,
      "ĠÐºÐ¾Ð½ÑĤÑĢÐ°": 7981,
      "Ġren": 7982,
      "ĠÐ´Ð²Ð¸": 7983,
      "ĠÐĴÐ¾Ð½Ð¸": 7984,
      "otogra": 7985,
      "Ġgobierno": 7986,
      "à±įà°¤à°ķ": 7987,
      "sw": 7988,
      "ÑİÑīÐµÐ³Ð¾": 7989,
      "Ġafect": 7990,
      "à°¿?": 7991,
      "ĠÐºÐ¾ÑĢÐ¾ÑĤ": 7992,
      "ÐµÐ³Ð°": 7993,
      "à±ģ:": 7994,
      "ĠÑģÐ°Ð¼Ð¾Ð³Ð¾": 7995,
      "Ġwent": 7996,
      "Ġrecog": 7997,
      "ĠâĢĿ": 7998,
      "ĠDios": 7999,
      "indi": 8000,
      "Ġà¤¹à¤®à¤²": 8001,
      "ĠÐ¼Ð°Ð¹Ð±ÑĥÑĤ": 8002,
      "ĠÐ¿Ð¸ÑĤÐ°": 8003,
      "Ġtook": 8004,
      "Ġjo": 8005,
      "ĠÑģÑĤÑĢÐ°Ñħ": 8006,
      "ĠÐ½Ð°ÑıÐ²": 8007,
      "cks": 8008,
      "Ġà¤ªà¤°à¤®": 8009,
      "ÑĪÐ¸Ð²": 8010,
      "att": 8011,
      "ÐµÐ½Ð¸Ð¼": 8012,
      "ĠÐ²Ð¿Ð»Ð¸Ð²": 8013,
      "Ġà¤®à¤¸": 8014,
      "IM": 8015,
      "Ġtrata": 8016,
      "Ġdirector": 8017,
      "ĠÐ¼ÐµÐ½ÑĮ": 8018,
      "Ġcuerpo": 8019,
      "ĠÐ´Ð¾ÑģÐ²ÑĸÐ´": 8020,
      "Ð°ÑĢÑĸ": 8021,
      "ĠÐ°Ð´Ð¼ÑĸÐ½ÑĸÑģÑĤÑĢÐ°": 8022,
      "rÃ³n": 8023,
      "ĠÐ¸Ð¼ÐµÑİÑĤ": 8024,
      "ĠÐ¼Ð¸Ðº": 8025,
      "ĠpÃ¡g": 8026,
      "ĠlÃŃne": 8027,
      "Ġà¤ķà¤¬": 8028,
      "Ġsemana": 8029,
      "ply": 8030,
      "°ī": 8031,
      "à°ī": 8032,
      "Ġcelebr": 8033,
      "ĠÐ³Ð»Ð¸": 8034,
      "ĠÐ´Ð¾ÐºÑĥÐ¼ÐµÐ½ÑĤ": 8035,
      "ĠÐ¿Ð¾ÑĩÐ°ÑĤÐºÑĥ": 8036,
      "Ð³ÑĸÐ´Ð½Ð¾": 8037,
      "Ð½Ð´": 8038,
      "ij": 8039,
      "ĠÑĢÐ°Ð´Ñĸ": 8040,
      "ĠÑģÑĤÐ¾ÑĢÐ¾Ð½": 8041,
      "arl": 8042,
      "Ġcontinue": 8043,
      "ĠÐ²Ð¸ÐºÐ¾Ð½Ð°Ð½Ð½Ñı": 8044,
      "Ġreview": 8045,
      "ĠÑħÐ¾Ð»": 8046,
      "Ð¸Ð¶": 8047,
      "Ġcand": 8048,
      "Ġopin": 8049,
      "unty": 8050,
      "AP": 8051,
      "ĠÐ·Ð°ÑħÐ²Ð¾ÑĢÑİ": 8052,
      "ĠÐ¿Ð¾ÑĩÑĤÐ¸": 8053,
      "ĠÐ·ÐµÐ¼ÐµÐ»ÑĮ": 8054,
      "ĠÐ½Ð°Ð·Ð°Ð´": 8055,
      "Ġmajor": 8056,
      "ĠUnited": 8057,
      "Ð¾ÑīÐ¸": 8058,
      "Ð²Ð¸Ð¹": 8059,
      "ĠMÃ©": 8060,
      "ÐºÐ¾Ð³": 8061,
      "Ġdirig": 8062,
      "Ġobserv": 8063,
      "à°£à°²": 8064,
      "Ġproblem": 8065,
      "ising": 8066,
      "ĠNacional": 8067,
      "Ġà¤Ĩà¤ķ": 8068,
      "Ġalong": 8069,
      "ĠÑĸÑģÐ½Ñĥ": 8070,
      "à±įà°¨à°µ": 8071,
      "ĠÑģÐºÐ»Ð°Ð´Ð°": 8072,
      "Ġinstal": 8073,
      "ĠÐ·Ð¸Ð¼": 8074,
      "Ġmusic": 8075,
      "Ġfoc": 8076,
      "apt": 8077,
      "Ġà¤°à¤¨": 8078,
      "frut": 8079,
      "Ġautom": 8080,
      "à¥ĭà¤¶à¤²": 8081,
      "à°¿à°¤à°®": 8082,
      "Ġà¤¤à¤¸": 8083,
      "ĠÐ²Ð¸ÑģÑĤÑĥÐ¿": 8084,
      "tand": 8085,
      "ĠÐ½Ð°Ð²ÑĩÐ°Ð½Ð½Ñı": 8086,
      "posiciÃ³n": 8087,
      "ÑĸÐ·Ð½Ð°": 8088,
      "ĠÑģÐºÐ°Ð·Ð°Ð»": 8089,
      "Ġ..": 8090,
      "ÐľÐ¸": 8091,
      "au": 8092,
      "Ġaspect": 8093,
      "Ð°Ð»ÑĸÐ²": 8094,
      "à°¾à°¸à°¨": 8095,
      "ÐłÐŀ": 8096,
      "Ġà¤ķà¤°à¤µ": 8097,
      "ĠÐ¿Ð¾Ð½": 8098,
      "Ġthought": 8099,
      "à¥Ĥà¤ļà¤¨": 8100,
      "Ġdue": 8101,
      "Ġwebsite": 8102,
      "Ġpreg": 8103,
      "ump": 8104,
      "ĠÑħÐ¾ÑĤÑı": 8105,
      "à±įà°ļà°¨": 8106,
      "Ð¾Ð½Ð°Ñħ": 8107,
      "Ġpers": 8108,
      "Ġseveral": 8109,
      "col": 8110,
      "ĠÐµÐºÑģÐ¿ÐµÑĢ": 8111,
      "Ð¾ÑĢÐ¸Ñı": 8112,
      "ĠÐ¿Ð¾ÑĤÐµÐ½": 8113,
      "Ġà°Ĩà°¯": 8114,
      "ierra": 8115,
      "eth": 8116,
      "Ġfamilia": 8117,
      "unic": 8118,
      "icion": 8119,
      "iron": 8120,
      "ĠÐ¿Ð¾Ð»Ñı": 8121,
      "unch": 8122,
      "ÑģÑĮÐºÐ¾Ñİ": 8123,
      "Ð»ÐµÐ½Ð¸ÐµÐ¼": 8124,
      "Ð°Ð²Ð»Ð¸Ð²Ð°": 8125,
      "iam": 8126,
      "ÑģÑĮÐºÐµ": 8127,
      "ĠUna": 8128,
      "ĠWorld": 8129,
      "Ð±Ðµ": 8130,
      "Ġcut": 8131,
      "à±ģà°³": 8132,
      "cciones": 8133,
      "ĠÐ¾ÑģÑĤÐ°": 8134,
      "à±ģà°²à°ª": 8135,
      "ÐļÐ¾Ð½": 8136,
      "ĠÑĤÐµÐ¿ÐµÑĢÑĮ": 8137,
      "Ġservices": 8138,
      "ION": 8139,
      "ĠÐ¾Ð¿Ð°Ñģ": 8140,
      "à±įà°µà°¤": 8141,
      "ÑĥÑģÐ°": 8142,
      "âĢĻm": 8143,
      "ĠÑĥÑģÐ¸": 8144,
      "Ġà¤ħà¤«": 8145,
      "ĠÐ²ÐµÑĢÑħ": 8146,
      "à¤¾à¤¨à¤¦": 8147,
      "ĠrelaciÃ³n": 8148,
      "Ġexplic": 8149,
      "à±Ĩà°ľ": 8150,
      "plement": 8151,
      "ĠÐ²ÑĭÑĢÐ°": 8152,
      "Ð¾Ð²Ð¾Ð»ÑĮ": 8153,
      "ÑĢÑĥÐµÑĤÑģÑı": 8154,
      "Ġmean": 8155,
      "):": 8156,
      "âĢĻve": 8157,
      "ĠÐºÐ¾Ð³Ð¾": 8158,
      "Ġnon": 8159,
      "Ġprem": 8160,
      "Ġincluy": 8161,
      "ĠÐ´ÐµÐ»Ð¾": 8162,
      "à°Ĺà°¡": 8163,
      "à¤¾à¤¯à¤²": 8164,
      "icy": 8165,
      "Ã¡b": 8166,
      "ĠÐłÐ¾ÑģÑģÐ¸Ð¹": 8167,
      "Ð¸Ð½Ð¾Ðº": 8168,
      "ÑĢÑĸÐ¹": 8169,
      "Ġbuena": 8170,
      "à±įà°¶à°ķà°¤": 8171,
      "ĠÐºÐ¾Ð¼ÑĦÐ¾ÑĢ": 8172,
      "irse": 8173,
      "Ġtext": 8174,
      "Ġjuego": 8175,
      "ĠPe": 8176,
      "ĠÐ·Ð°ÐºÐ»Ð°Ð´": 8177,
      "ÐºÐ¾ÑģÑĤÑĸ": 8178,
      "à¤¾à¤¦à¤µ": 8179,
      "ĠÑģÑĤÐ²Ð¾ÑĢÐµÐ½Ð½Ñı": 8180,
      "ĠÐ²ÑĸÑĤ": 8181,
      "Ġwomen": 8182,
      "ĠÐ²Ð»Ð°Ð´Ð¸": 8183,
      "Ġtor": 8184,
      "Ġà°¨à°¨": 8185,
      "Ġnunca": 8186,
      "lace": 8187,
      "ĠÑĢÐµÐ¿": 8188,
      "iado": 8189,
      "ĠÐ±Ð»Ð¸Ð·ÑĮÐºÐ¾": 8190,
      "Ġens": 8191,
      "ĠÑĥÑģÐ»Ð¾Ð²Ð¸ÑıÑħ": 8192,
      "ĠÐ¼Ð¾Ð±": 8193,
      "ĠÐĴÑģ": 8194,
      "Ð¸ÑĩÐµÑģÐºÐ¾Ð³Ð¾": 8195,
      "ĠnÃºmero": 8196,
      "Ġimpact": 8197,
      "à¥ĩ.Ċ": 8198,
      "ĠÑģÑĤÐ¾Ñı": 8199,
      "Ġcambi": 8200,
      "ĠÐ»ÑİÐ±Ð¾Ð¹": 8201,
      "ĠÐ³ÑĢÐ¾Ð¼Ð°Ð´ÑıÐ½": 8202,
      "ĠÐ·ÑĢ": 8203,
      "lege": 8204,
      "Ġinclude": 8205,
      "Ġpresidente": 8206,
      "ĠOct": 8207,
      "Ð³Ð½": 8208,
      "Ġfive": 8209,
      "Ġrema": 8210,
      "ĠÐºÑĢÐ°ÑĹÐ½Ð¸": 8211,
      "illas": 8212,
      "Ġport": 8213,
      "ĠMor": 8214,
      "ĠÐ¿ÑĢÐ¸Ðº": 8215,
      "Ð¾ÑĤÑĭ": 8216,
      "ĠDav": 8217,
      "Ġà°®à°°à°£": 8218,
      "ĠCity": 8219,
      "ÑĮÑİÑĤ": 8220,
      "ĠÑģÐ¸ÑģÑĤÐµÐ¼Ñĥ": 8221,
      "Ġcaracter": 8222,
      "iales": 8223,
      "Ġobt": 8224,
      "Ġedit": 8225,
      "Ġdoesn": 8226,
      "ENT": 8227,
      "ĠÐ¾Ð·Ð½Ð°ÑĩÐ°": 8228,
      "ĠWhen": 8229,
      "Ġtold": 8230,
      "à¥įà¤¯à¤¤": 8231,
      "ĠSol": 8232,
      "aw": 8233,
      "ÑĪÐµÐµ": 8234,
      "ĠÐ¿Ð¾Ð»ÐµÐ·": 8235,
      "ĠÐ½Ð°Ð¹ÑĤÐ¸": 8236,
      "igos": 8237,
      "à°Ĥà°¬à°°": 8238,
      "Ð¾ÑĤÐµ": 8239,
      "OL": 8240,
      "Ġfilm": 8241,
      "Ġbecome": 8242,
      "à±įà°¨à°°": 8243,
      "ÑĪÑĤÐ¾Ð²": 8244,
      "Ġil": 8245,
      "maz": 8246,
      "ĠÐ¾Ð´Ð½Ñĥ": 8247,
      "Ġà¤¦à¤¸": 8248,
      "ĠÐ´Ð¾ÑģÐ¸ÑĤÑĮ": 8249,
      "Ð¾ÑĩÐºÐ¸": 8250,
      "Ġonce": 8251,
      "Ġà¤Ńà¤Ĺ": 8252,
      "ĠÐ¾ÑĦ": 8253,
      "Ġreturn": 8254,
      "ĠÐ¿Ð¾Ð»ÑĮÐ·Ð¾Ð²": 8255,
      "Ð¾Ð±ÑīÐµ": 8256,
      "ĠÐ¾Ð±Ð¼ÐµÐ¶": 8257,
      "Ġà°ıà°³": 8258,
      "Ð½Ð¸ÑĨÑĤÐ²Ð¾": 8259,
      "Ð¸Ð¼Ð¾ÑģÑĤÐ¸": 8260,
      "Ð¾Ð²ÑĸÐ´": 8261,
      "ĠÐµÐºÑģÐ¿": 8262,
      "ĠÑģÑĤÐ¸": 8263,
      "ĠÐ·Ð°Ð»Ð¸ÑĪÐ°": 8264,
      "Ġdoing": 8265,
      "ĠÐ½Ð°Ð¿ÑĢÑıÐ¼": 8266,
      "ĠÐ¿ÑĢÐµÐ·Ð¸Ð´ÐµÐ½ÑĤ": 8267,
      "Ġfuera": 8268,
      "umento": 8269,
      "ĠÐ¿ÑĢÐ°Ð·Ð´": 8270,
      "ÐºÐ¾Ð²Ð¸Ñħ": 8271,
      "à±ĥà°Ĥ": 8272,
      "Ġcomput": 8273,
      "ĠÑģÐ°Ð¼ÑĭÑħ": 8274,
      "ĠPal": 8275,
      "ĠÐ»Ð¾Ð¶": 8276,
      "ĠÐ´Ð¸Ð²": 8277,
      "ĠÐ¦ÐµÐ½ÑĤ": 8278,
      "PS": 8279,
      "ĠÑĤÐµÑģÑĤ": 8280,
      "ĠÐĴÐ»Ð°Ð´Ð¸": 8281,
      "Ġtempor": 8282,
      "ĠÐ¡Ð²": 8283,
      "ĠÐ´Ð¸ÑĢÐµÐºÑĤÐ¾ÑĢ": 8284,
      "ĠÑĢÐµÑĪÐµÐ½Ð¸Ðµ": 8285,
      "ĠÐ¼ÐµÑĢÐµÐ¶": 8286,
      "alk": 8287,
      "Ġà¤ħà¤ľ": 8288,
      "Ġ*": 8289,
      "ĠÐºÑĥÑħ": 8290,
      "à¤¿à¤ķà¤¤": 8291,
      "à¥įà¤¤à¤®": 8292,
      "ÐŁÑĸÐ´": 8293,
      "à°ħà°¯": 8294,
      "Ġoften": 8295,
      "Ð»Ð¸ÑĪ": 8296,
      "ĠÐ¿Ð°ÑĨÐ¸": 8297,
      "xico": 8298,
      "ĠÐ¿Ð¸ÑĤÐ°Ð½ÑĮ": 8299,
      "ÑīÑĥ": 8300,
      "Ġdet": 8301,
      "ĠÐ°Ð±ÑģÐ¾Ð»ÑİÑĤ": 8302,
      "à°ļà°µà°ļ": 8303,
      "Ġcity": 8304,
      "à¥Ģà¤Łà¤°": 8305,
      "Ġwww": 8306,
      "à°¾à°¯à°ªà°¡": 8307,
      "ĠÐ²Ð¾ÑĢ": 8308,
      "ÑīÐ¸Ð½": 8309,
      "Ġcort": 8310,
      "ĠRec": 8311,
      "Ġpob": 8312,
      "Ġgetting": 8313,
      "ĠÐ¼ÐµÐ½Ñĸ": 8314,
      "ĠÑįÑĤÑĥ": 8315,
      "ÑĪÐ¸Ð»Ð¸": 8316,
      "ĠÐ¾ÑģÑĤÐ°Ð²": 8317,
      ");": 8318,
      "ÑĥÐ»Ñİ": 8319,
      "Ġaccount": 8320,
      "ĠpaÃŃses": 8321,
      "ĠÑĢÐµÑĶ": 8322,
      "à±ģà°²à°²": 8323,
      "ÑĩÐºÐ°": 8324,
      "ĠÑģÑĸÐ»ÑĮ": 8325,
      "ĠEstado": 8326,
      "ĠÐ¿Ð¾Ð´ÑĤÐ²ÐµÑĢ": 8327,
      "Ġà¤°à¤ĸà¤¤": 8328,
      "Ġmejores": 8329,
      "ÐłÐĲ": 8330,
      "Ġlearn": 8331,
      "ĠWest": 8332,
      "Ġà¤¤à¤²": 8333,
      "Ġlarge": 8334,
      "Ġzona": 8335,
      "ĠÐ¿Ð¾Ð¼Ð¾ÑīÐ¸": 8336,
      "Ġjud": 8337,
      "ĠÑĢÑı": 8338,
      "ĠÐ½Ð°ÑĪÐµÐ¹": 8339,
      "Ġsociales": 8340,
      "ĠIN": 8341,
      "Ġfollowing": 8342,
      "ĠII": 8343,
      "fort": 8344,
      "To": 8345,
      "ÑĩÐµÑģÐºÐ¸Ñħ": 8346,
      "Ã±as": 8347,
      "ÑĩÐ°ÑĤÐ¸": 8348,
      "à°¿à°ľà°¨": 8349,
      "ĠNot": 8350,
      "ÑĥÐ¶Ð´": 8351,
      "Ġà°ķà°µ": 8352,
      "Ġà¤®à¤ľà¤¬": 8353,
      "ĠÐ·Ð¾Ð»": 8354,
      "ĠÐ¿Ð¾ÑĩÐ¸Ð½Ð°": 8355,
      "ĠWindows": 8356,
      "Ð³Ð°Ð´": 8357,
      "Ġcorr": 8358,
      "Ġdedic": 8359,
      "Ġfall": 8360,
      "à±įà°¶à°¨": 8361,
      "Ġà¤īà¤²": 8362,
      "Ġconcer": 8363,
      "ĠÑģÑĤÐ¾ÑĢÑĸÐ½": 8364,
      "ky": 8365,
      "ensive": 8366,
      "Ð³Ð°Ð»": 8367,
      "ĠÐ±ÐµÑĢÐµÐ·": 8368,
      "antas": 8369,
      "ĠÐ²Ð¸Ð¿Ð°Ð´ÐºÑĥ": 8370,
      "ka": 8371,
      "ĠÑĥÐ·Ð½Ð°": 8372,
      "ĠÐ¿Ð¾ÑĤÐµÑĢ": 8373,
      "-p": 8374,
      "ĠÐ¾ÑĤÐ´ÐµÐ»": 8375,
      "-y": 8376,
      "à±įà°°à°µà°°": 8377,
      "ĠÐ¸Ð½ÑĦÐ¾ÑĢÐ¼Ð°ÑĨÐ¸Ð¸": 8378,
      "à±ĩà°¬": 8379,
      "ĠÐ»Ð°": 8380,
      "ĠÐ½Ð°Ð¸Ð±Ð¾Ð»ÐµÐµ": 8381,
      "ĠÑģÐ¿Ð¾Ðº": 8382,
      "side": 8383,
      "-à¤ª": 8384,
      "What": 8385,
      "ÑĤÐ¸ÐºÑĥ": 8386,
      "à°¿à°¨à°µ": 8387,
      "ĠÑĨÑĸÐ»": 8388,
      "ĠÐ´Ð²Ð¾Ñħ": 8389,
      "à¥Īà¤ª": 8390,
      "à°ĩà°¦": 8391,
      "On": 8392,
      "Ġprofess": 8393,
      "OT": 8394,
      "ĠÐ¿ÑĸÐ´Ð³Ð¾ÑĤÐ¾Ð²": 8395,
      "IV": 8396,
      "Ġescrit": 8397,
      "Ġsecre": 8398,
      "Ġrealidad": 8399,
      "Ġà¤¸à¤¡": 8400,
      "âĢĻÑĶÐº": 8401,
      "Ð¾Ð²Ð°Ð»": 8402,
      "Ð¾ÑıÑĤ": 8403,
      "ĠÑĢÐ¾Ð·ÑĥÐ¼": 8404,
      "Ġà°µà°¨": 8405,
      "Ð°Ð»ÑĮÐ½Ðµ": 8406,
      "ĠÑĩÐ¾Ð³Ð¾": 8407,
      "ĠÑĨÑĸÐ½": 8408,
      "ured": 8409,
      "ĠÐ¿Ð¾Ð´Ð³Ð¾ÑĤÐ¾Ð²": 8410,
      "Ð¸ÑĩÐµÑģÐºÐ¸Ðµ": 8411,
      "ĠÑģÐ²Ð¾Ð¸Ð¼": 8412,
      "ester": 8413,
      "ĠJust": 8414,
      "à¤Ĥà¤ªà¤°": 8415,
      "ĠEste": 8416,
      "ound": 8417,
      "ĠpolÃŃtica": 8418,
      "Ġoportun": 8419,
      "Ð²Ð°ÑĶ": 8420,
      "UR": 8421,
      "Ġyet": 8422,
      "oman": 8423,
      "Ð»ÑıÐ´": 8424,
      "Ġothers": 8425,
      "ĠÐ·Ð°Ð±ÐµÐ·Ð¿ÐµÑĩÐµÐ½Ð½Ñı": 8426,
      "ĠÑĤÐ¾Ð´Ñĸ": 8427,
      "ĠÐ¿Ð¾Ð²Ð¸Ð½Ð½Ñĸ": 8428,
      "ĠAir": 8429,
      "ĠÐµÐ¹": 8430,
      "ĠWith": 8431,
      "à¤Ĥà¤§à¤¨": 8432,
      "à°¡à°Ĺ": 8433,
      "Ġcompr": 8434,
      "ĠNational": 8435,
      "ĠÑģÑĤÑĢ": 8436,
      "à±Ģà°³": 8437,
      "à°ķà°²": 8438,
      "ĠÐ²Ð°ÑĢÑĤÐ¾": 8439,
      "IL": 8440,
      "Ġunas": 8441,
      "ĠÑĥÐ¼Ð¾Ð²Ð°": 8442,
      "ĠÐ°Ð´Ð¼Ð¸Ð½Ð¸ÑģÑĤÑĢÐ°": 8443,
      "ĠGeneral": 8444,
      "Ġresol": 8445,
      "ĠMich": 8446,
      "reet": 8447,
      "Ġenton": 8448,
      "Ġbra": 8449,
      "ĠInternet": 8450,
      "ÑĪÐºÐ°": 8451,
      "ĠÐ¼Ð¸Ð»Ð»Ð¸": 8452,
      "ĠÑĢÐµÐ·ÑĥÐ»ÑĮÑĤÐ°ÑĤÐµ": 8453,
      "Ġmakes": 8454,
      "Ð±Ð°ÑĤ": 8455,
      "ĠÐºÑĥÐ¿Ð¸ÑĤÑĮ": 8456,
      "Ð´Ð¸Ð²Ð¸Ð´Ñĥ": 8457,
      "Ġissue": 8458,
      "Ġteach": 8459,
      "izado": 8460,
      "ĠÑĦÐ¾Ð½": 8461,
      "à±Ģà°¬": 8462,
      "Ġlive": 8463,
      "Ġaff": 8464,
      "ĠSm": 8465,
      "ĠÐ°ÐºÑĤÑĥ": 8466,
      "ĠÑĤÐµÑĢÑĢÐ¸ÑĤÐ¾ÑĢÐ¸Ð¸": 8467,
      "ĠEstados": 8468,
      "Ð·Ð¼": 8469,
      "à¤¿à¤°à¤«": 8470,
      "à°Ĥà°¡à°Ł": 8471,
      "Ġstop": 8472,
      "ĠÑģÑĤÐµÐ¿": 8473,
      "ĠÐ³Ð»Ð°Ð·Ð°": 8474,
      "Ġpage": 8475,
      "ĠÐ¼Ð°Ð³": 8476,
      "cÃŃa": 8477,
      "ĠÐ·Ð°Ð²Ð¸ÑģÐ¸Ð¼": 8478,
      "Ð²Ð¾Ðµ": 8479,
      "Ġcheck": 8480,
      "ĠÑįÑĦÑĦÐµÐº": 8481,
      "à±ĩà°°à°ķ": 8482,
      "Ġhora": 8483,
      "Ġà°ħà°¤à°¡": 8484,
      "wards": 8485,
      "à¥īà¤®": 8486,
      "ĠmÃºs": 8487,
      "Ġobjetivo": 8488,
      "ĠÐ¿Ð¾Ð±Ð°": 8489,
      "Ð¶Ð°ÑĤÑĮ": 8490,
      "ners": 8491,
      "ĠÑĦÑĸÐ·Ð¸Ñĩ": 8492,
      "Ġseguir": 8493,
      "Ġejer": 8494,
      "ÐµÐ¼ÑĭÑħ": 8495,
      "85": 8496,
      "Ġà°ĺà°Łà°¨": 8497,
      "à¥ģà¤ªà¤ı": 8498,
      "à±Ģà°Ĳ": 8499,
      "Ġlargo": 8500,
      "Ġà¤¹à¤²": 8501,
      "omas": 8502,
      "ĠpÃºblico": 8503,
      "ÑģÑĤÐ²Ð¾Ð²Ð°ÑĤÑĮ": 8504,
      "ĠÐ·Ð²Ð¸ÑĩÐ°Ð¹": 8505,
      "Ð¾ÑĤÑĢÐµÐ±": 8506,
      "Ġbased": 8507,
      "à¥ģà¤ļ": 8508,
      "ÐµÐºÐ°ÑĢ": 8509,
      "ĠÐ½ÑĸÑĩ": 8510,
      "ĠÐµÐ´Ð¸Ð½": 8511,
      "ÐļÐŀ": 8512,
      "ĠÑĩÐµÑĢÐ²": 8513,
      "Ar": 8514,
      "ÑĦÐµ": 8515,
      "ĠÑģÑĢÐµÐ´Ð¸": 8516,
      "my": 8517,
      "Ð¿ÑĢÐ°Ð²Ð¸": 8518,
      "Ġjue": 8519,
      "ĠÐ½Ð°ÑħÐ¾Ð´Ð¸ÑĤÑģÑı": 8520,
      "uring": 8521,
      "ĠÐ´ÑĸÐ²": 8522,
      "Ð»ÑĥÐ°ÑĤÐ°": 8523,
      "ĠÐ²Ð°ÑĢÑĸ": 8524,
      "ĠÐ·Ð°Ð±Ð¾Ð»ÐµÐ²Ð°Ð½Ð¸Ñı": 8525,
      "ĠÐ½Ð°ÑĨÑĸÐ¾Ð½Ð°Ð»ÑĮ": 8526,
      "à°¿à°Ĺà°¤": 8527,
      "ĠÐ¶Ð¸": 8528,
      "ifest": 8529,
      "Ġdisfrut": 8530,
      "ÑĤÐ¸ÑĩÐ½Ñĸ": 8531,
      "Ð¾Ð¿ÑĢÐ¾": 8532,
      "ĠÑĤÑĢÐ°Ð½ÑģÐ¿Ð¾ÑĢ": 8533,
      "ĠÐ²ÑĸÐ´Ð¿Ð¾Ð²ÑĸÐ´Ð½Ð¾": 8534,
      "Ġhouse": 8535,
      "Ġpen": 8536,
      "ĠÐ»ÑĸÐºÑĥÐ²Ð°Ð½Ð½Ñı": 8537,
      "ÑıÑĤÐ¸Ð¹": 8538,
      "atures": 8539,
      "Ð¸Ð½Ð³": 8540,
      "ĠÑĥÐ¶": 8541,
      "Ġà°Ĳà°¦": 8542,
      "ĠÑĢÐ°Ð·Ñĸ": 8543,
      "Ð°Ð»ÑĮÐ½Ð¾Ð¼Ñĥ": 8544,
      "ĠApr": 8545,
      "ĠPat": 8546,
      "Ġusted": 8547,
      "Ð¸ÐºÐ¾Ð»Ð°": 8548,
      "à¥įà¤¥à¤¨": 8549,
      "ĠÐ¾ÑĤÐ²ÐµÑĤÑģÑĤÐ²ÐµÐ½": 8550,
      "eron": 8551,
      "ĠÑĸÐ½ÑĦÐ¾ÑĢÐ¼Ð°ÑĨÑĸÑĹ": 8552,
      "ĠÐ¿ÑĢÐ¾Ð¸ÑģÑħÐ¾Ð´Ð¸ÑĤ": 8553,
      "à¥įà¤°à¤¬": 8554,
      "porte": 8555,
      "ule": 8556,
      "Ð¹ÑĤÐµÑģÑĮ": 8557,
      "à°¾Ċ": 8558,
      "ĠÑĢÐ°Ð±Ð¾ÑĤÐµ": 8559,
      "ĠÐ¼ÑĸÑģÑĨÐµÐ²": 8560,
      "ison": 8561,
      "ĠÐ¿ÑĢÐ¸Ð²Ð¾Ð´": 8562,
      "ÐµÐ´Ð¶": 8563,
      "Ð¾ÑģÐºÐ¾Ð²": 8564,
      "Ġintro": 8565,
      "ĠÃºltimo": 8566,
      "ĠÐ·Ð¾Ð²Ð½ÑĸÑĪ": 8567,
      "ĠÑıÐºÐ¾Ð¼Ñĥ": 8568,
      "ÑģÐºÑĥÑİ": 8569,
      "ĠÐ¿ÐµÑģ": 8570,
      "à¥įà¤µà¤¤": 8571,
      "ourn": 8572,
      "Ġearly": 8573,
      "ĠÐ¾Ð±Ð»Ð°Ñģ": 8574,
      "ĠÐ²Ð°ÑĢÑĤ": 8575,
      "ĠÐ´Ð½ÑĸÐ²": 8576,
      "ĠÐ´ÑĸÑĹ": 8577,
      "ĠÑħÐ¾Ð»Ð¾Ð´": 8578,
      "udo": 8579,
      "ĠÐ¾ÐºÑĢÑĥ": 8580,
      "Ġà¤Ĺà¤²à¤¤": 8581,
      "aster": 8582,
      "ĠÐ½Ð°ÑĩÐ°Ð»ÑĮ": 8583,
      "ĠÑıÐºÐ¾ÑģÑĤÑĸ": 8584,
      "Ġwatch": 8585,
      "ĠÐ»ÐµÑĩÐµÐ½Ð¸Ñı": 8586,
      "ĠCont": 8587,
      "ĠÐºÐ°Ð·": 8588,
      "Ġocas": 8589,
      "Ġdeal": 8590,
      "Ġentonces": 8591,
      "Ġll": 8592,
      "ĠÑĤÐºÐ°": 8593,
      "ĠÑĤÑĭÑģÑıÑĩ": 8594,
      "Ġconsegu": 8595,
      "Ġalguna": 8596,
      "ĠÐºÑĢÐ°Ð¹": 8597,
      "800": 8598,
      "ened": 8599,
      "à±Ĩà°°à°ķ": 8600,
      "Ġcuest": 8601,
      "ĠÐĴÐ¾Ð»Ð¾Ð´Ð¸": 8602,
      "Ġcasos": 8603,
      "irst": 8604,
      "Ġdistrib": 8605,
      "Ġà¤¶à¤ķ": 8606,
      "Ġsaber": 8607,
      "ĠÐ¸Ð³ÑĢÑĭ": 8608,
      "ĠÐ´Ð¾ÑĢÐ¾Ð³": 8609,
      "ĠÐľÐ¸Ñħ": 8610,
      "ĠÑģÐµÑĢÑĮ": 8611,
      "à¤¾à¤¹à¤ķ": 8612,
      "erÃŃa": 8613,
      "à¤¿à¤¶à¤¤": 8614,
      "ĠÑģÐ¾ÑħÑĢÐ°": 8615,
      "ÑģÑĸÐ²": 8616,
      "ĠÐ¾ÑĤÐ²": 8617,
      "Ġpartir": 8618,
      "iedad": 8619,
      "ĠÑĹÐ¼": 8620,
      "ÑģÐ¾Ð¼": 8621,
      "ĠÐłÐ¾ÑģÑĸÑĹ": 8622,
      "âĢĻÑıÑĤ": 8623,
      "41": 8624,
      "ĠÐºÐ¾ÑĤÐ¾ÑĢÐ¾Ð¼": 8625,
      "ĠÐ¾ÑĤÐ»Ð¸": 8626,
      "ĠÐ²ÑģÑĤÑĥÐ¿": 8627,
      "ĠÐ·Ð°ÑģÑĤÐ¾ÑģÑĥÐ²Ð°Ð½Ð½Ñı": 8628,
      "Ð³ÐµÐ½": 8629,
      "ĠMart": 8630,
      "Ġprograma": 8631,
      "ĠÑģÑĥÑħ": 8632,
      "ĠArt": 8633,
      "ÑĨÑĸÑĶÐ½": 8634,
      "à¤Ĥà¤¯": 8635,
      "ĠÐ´ÐµÐ¹ÑģÑĤÐ²Ð¸Ñı": 8636,
      "Ġcuatro": 8637,
      "Ġunderstand": 8638,
      "Ġà¤¨à¤Ĺà¤°": 8639,
      "ĠÐ´ÐµÑģÑı": 8640,
      "encial": 8641,
      "Ġeleg": 8642,
      "Ð»ÑıÑİÑĤ": 8643,
      "ĠÑĤÐ°Ð½": 8644,
      "ĠÐ·ÑĥÑģÑĤÑĢÑĸ": 8645,
      "ĠÐ¿Ð»Ð¾ÑīÐ°Ð´": 8646,
      "Ġà°¢": 8647,
      "Ð°Ð½Ð½ÑĭÑħ": 8648,
      "ĠÑĢÐµÐ²": 8649,
      "ĠÐ¾Ð³ÑĢÐ¾Ð¼": 8650,
      "Ġvict": 8651,
      "ĠÐŁÑĢÐµÐ´": 8652,
      "à±Ģà°İà°¸": 8653,
      "Ġaquell": 8654,
      "à±Ĩà°·": 8655,
      "ai": 8656,
      "ĠÑħÑĢÐ°": 8657,
      "Ġjunto": 8658,
      "ÑĮÐ¸": 8659,
      "ĠÐ·Ð¼Ð¾Ð¶": 8660,
      "Ġà¤ķà¤¨": 8661,
      "ĠÐ¼Ð°Ð¹Ð¶Ðµ": 8662,
      "Ġà¤Ĺà¤¤": 8663,
      "ĠÐ¿Ð¾Ð¸Ñģ": 8664,
      "ĠÐºÐ¾Ð¼Ð¿Ð¾Ð½": 8665,
      "Ġgames": 8666,
      "Ð»ÐµÐ½Ð½ÑĭÑħ": 8667,
      "600": 8668,
      "Ġpermite": 8669,
      "ights": 8670,
      "Ð¾ÐºÑģÐ¸": 8671,
      "ĠÐ³ÑĥÐ±": 8672,
      "ĠÐ½Ð°ÑĥÐº": 8673,
      "ĠmayorÃŃa": 8674,
      "ĠÐŁÑĢÐ°Ð²": 8675,
      "ÑĢÐ¸ÑĤÑĤÑı": 8676,
      "Ġvarios": 8677,
      "ĠÑĢÐµÑĪÐµÐ½Ð¸Ñı": 8678,
      "ban": 8679,
      "roid": 8680,
      "ÑĪÑĤÐ°": 8681,
      "à±ĩà°ļ": 8682,
      "-Ð³Ð¾": 8683,
      "ÐºÐµÑĤ": 8684,
      "Ð¾Ð±Ð¾Ð²": 8685,
      "ĠÐ½ÐµÑĢ": 8686,
      "ĠÐ´Ð¾Ð±ÑĢÐµ": 8687,
      "ĠOff": 8688,
      "ĠHer": 8689,
      "ĠÐŁÑĢ": 8690,
      "ĠÐµÑīÑĳ": 8691,
      "Ġespeci": 8692,
      "ĠrÃ¡p": 8693,
      "ĠÐ²Ð¸Ð¹": 8694,
      "à±įà°°à°¦à°°": 8695,
      "ites": 8696,
      "ĠÐ¼ÐµÐ´Ð¸Ñĩ": 8697,
      "Ġclos": 8698,
      "ĠÑģÐ°Ð»": 8699,
      "Ġcompart": 8700,
      "ÑĤÐ¸ÑĩÐµÑģÐºÐ¸Ñħ": 8701,
      "ĠÑģÐ¾Ð³Ð»Ð°Ñģ": 8702,
      "Ġrelig": 8703,
      "Ġproblema": 8704,
      "à¥įà¤¸à¤°": 8705,
      "isto": 8706,
      "Ġcentro": 8707,
      "Ġdice": 8708,
      "Ġà¤¦à¤¬": 8709,
      "ĠÑĥÑĤÐ²ÐµÑĢ": 8710,
      "ĠGro": 8711,
      "ĠÐĵÐµÑĢ": 8712,
      "Ġreserv": 8713,
      "ĠÐ¾Ð¿Ð¸Ñģ": 8714,
      "Ð³ÑĸÐ²": 8715,
      "ÐºÐ°Ð´ÐµÐ¼": 8716,
      "Ġà¤ħà¤Ĺà¤²": 8717,
      "Ġpoints": 8718,
      "Pro": 8719,
      "à¥Įà¤²": 8720,
      "ĠÑĢÐ°Ð·Ð»Ð¸ÑĩÐ½ÑĭÑħ": 8721,
      "à±įà°¦à°¤": 8722,
      "ĠWill": 8723,
      "htt": 8724,
      "ĠÐ¾ÑĦÑĸ": 8725,
      "Ġquestion": 8726,
      "à°®à°µ": 8727,
      "ÐµÑģÐ¿ÑĥÐ±Ð»Ð¸": 8728,
      "Ð»ÐµÐ½Ð½ÑĭÐµ": 8729,
      "Ġpossible": 8730,
      "à¤¾à¤Ĺà¤¤": 8731,
      "ĠÑĥÐ²Ð°Ð³Ñĥ": 8732,
      "ĠÐ±Ð¾Ð»ÑĮÑĪÐ¸Ð½": 8733,
      "ĠÐ¢Ð°ÐºÐ¶Ðµ": 8734,
      "icult": 8735,
      "ĠÃ©st": 8736,
      "oss": 8737,
      "ĠÐ³Ð¾ÑģÑĤ": 8738,
      "ead": 8739,
      "Ġindepend": 8740,
      "43": 8741,
      "But": 8742,
      "à±įà°²à°ª": 8743,
      "ÐĶÐ¾": 8744,
      "ĠÐ·Ð°ÑĢÐ°": 8745,
      "Ġsil": 8746,
      "ĠLib": 8747,
      "bres": 8748,
      "rag": 8749,
      "Ġespacio": 8750,
      "Ġbill": 8751,
      "Ġà¤Ĩà¤²": 8752,
      "Ð¸Ð»ÑģÑı": 8753,
      "ĠÐ¾Ð±ÑıÐ·Ð°ÑĤÐµÐ»ÑĮ": 8754,
      "Ġsiendo": 8755,
      "Ġà¤¹à¤¤": 8756,
      "ĠÐĿÐĲ": 8757,
      "ĠÐºÐ°Ð¶": 8758,
      "Ġcomplet": 8759,
      "ĠÐ²Ð¾Ð·Ð²": 8760,
      "à¤Łà¤°": 8761,
      "now": 8762,
      "Ġenjoy": 8763,
      "ĠÐ¿ÑĢÐ¾Ð±Ð»ÐµÐ¼Ñĭ": 8764,
      "ĠÐ¿Ð°Ð»": 8765,
      "ÑİÑīÐ°Ñı": 8766,
      "ĠÐ¾ÑģÐ¾Ð±Ð»Ð¸Ð²Ð¾": 8767,
      "ĠÐ´ÐµÑĢÐ¶Ð°Ð²Ð¸": 8768,
      "ĠÐ´Ð¾Ð³Ð¾Ð²": 8769,
      "ĠÑģÐ¸Ð»Ñĥ": 8770,
      "ĠÑģÐ°Ð¼Ð¾ÑģÑĤÐ¾ÑıÑĤÐµÐ»ÑĮ": 8771,
      "Ġcorrect": 8772,
      "ĠÑģÐ²ÑĸÑĤÑĥ": 8773,
      "ÑĢÐ¸Ð¼ÑĸÐ½": 8774,
      "ĠÐ¿ÑĢÐ¾Ð´Ð¾Ð»Ð¶": 8775,
      "Ġtreat": 8776,
      "ĠÐ²Ð¸ÑħÐ¾Ð²": 8777,
      "ĠpodrÃŃa": 8778,
      "ela": 8779,
      "Ġà¤¨à¤ķ": 8780,
      "ĠÐ¿ÑĢÐ¸Ð¼ÐµÐ½Ñı": 8781,
      "Ġconnect": 8782,
      "à¤Ĥà¤¶": 8783,
      "ĠÐ¼ÐµÑģÑĤÐµ": 8784,
      "forma": 8785,
      "ÑĨÑĸÐ¹Ð½Ð¾Ð³Ð¾": 8786,
      "à¤¸à¤¨": 8787,
      "ÑĤÑĥÐ²Ð°Ð½Ð½Ñı": 8788,
      "Ġà¤ıà¤²": 8789,
      "aff": 8790,
      "Ð½ÑĥÐ»Ð¸": 8791,
      "à¥īà¤¡": 8792,
      "ÐĦ": 8793,
      "ĠAdemÃ¡s": 8794,
      "ĠÑħÐ»Ð¾Ð¿": 8795,
      "ĠÑģÐ¾Ð´ÐµÑĢÐ¶": 8796,
      "Ġps": 8797,
      "ĠÐ´Ð¸ÑĤ": 8798,
      "ĠCas": 8799,
      "ĠÑģÑĢÐ°Ð²": 8800,
      "ĠÑģÐ¾Ð²ÐµÑĤ": 8801,
      "Ġseries": 8802,
      "ĠÐľÑĸÐ½Ñĸ": 8803,
      "Ð¶ÐµÐ½ÑĮ": 8804,
      "ĠHol": 8805,
      "ĠÐ¿ÐµÑĢÐµÐ½": 8806,
      "à±įà°¨à°²": 8807,
      "Ġà°¸à°®à°°": 8808,
      "ĠÑģÑĤÑĢÐ°Ð½": 8809,
      "Ġcertain": 8810,
      "Ġpur": 8811,
      "pir": 8812,
      "ĠÐ¾ÐºÐ¾Ð½": 8813,
      "Ġpaso": 8814,
      "Ð´ÐµÑĤÑĮ": 8815,
      "Ġfrente": 8816,
      "ĠÑĥÐ½Ð¸Ðº": 8817,
      "ĠÐ¼Ð°ÑĤÐ¸": 8818,
      "Ð·Ð²Ð¸ÑĩÐ°Ð¹": 8819,
      "ĠÐļÑĢÐ¾Ð¼Ðµ": 8820,
      "Ġcou": 8821,
      "amin": 8822,
      "ift": 8823,
      "ĠÐ¾ÑģÐ¾Ð±ÐµÐ½Ð½Ð¾": 8824,
      "ĠÐ¼Ð°Ð³Ð°Ð·Ð¸": 8825,
      "ĠÑģÐ¾Ð¾Ð±ÑīÐ¸": 8826,
      "Ġnacional": 8827,
      "Ġdistint": 8828,
      "ÑĩÐ°ÑĶ": 8829,
      "Ġsentido": 8830,
      "ĠÑĨÐµÐ»ÑĮ": 8831,
      "ÐĨÐ½": 8832,
      "ĠÐ¼ÑĥÐ·Ñĭ": 8833,
      "ĠÐ¿ÐµÑĢÑģ": 8834,
      "uk": 8835,
      "Ġà¤¹à¤µ": 8836,
      "Ġmonths": 8837,
      "Ġatta": 8838,
      "iste": 8839,
      "ÐºÑģ": 8840,
      "à¥Ģà¤Ĥà¥¤": 8841,
      "Ġresid": 8842,
      "Ġgus": 8843,
      "Ġauthor": 8844,
      "Ġacom": 8845,
      "ĠÐ»Ð¸ÑĤ": 8846,
      "Ġ@": 8847,
      "ĠCenter": 8848,
      "ĠÑģÑĤÐ°Ð½Ð´Ð°ÑĢÑĤ": 8849,
      "à±Ĥà°ªà°°": 8850,
      "ĠÐ¼ÑĸÐ½Ñĸ": 8851,
      "ÐµÑĢÑĥ": 8852,
      "ĠmÃ©d": 8853,
      "Ġfundam": 8854,
      "ĠfÃ¡cil": 8855,
      "ĠÐ²Ð·Ñı": 8856,
      "ĠseÃ±al": 8857,
      "Ð¢Ð°": 8858,
      "ĠÐ¿ÑĢÐ¸Ð½ÑĨÐ¸Ð¿": 8859,
      "Ġperd": 8860,
      "56": 8861,
      "ÐºÐ¾ÑģÑĤÑĮ": 8862,
      "Ð»ÑİÐ±": 8863,
      "curr": 8864,
      "Ġmuest": 8865,
      "ĠatenciÃ³n": 8866,
      "Ġcoment": 8867,
      "ĠÐºÐ°ÐºÐ¸Ðµ": 8868,
      "ĠÑģÐ¾Ð¾ÑĤÐ²ÐµÑĤÑģÑĤÐ²ÑĥÑİ": 8869,
      "ĠÐ½ÐµÐµ": 8870,
      "à¥Įà¤Ĥ": 8871,
      "ĠÐ¿ÑĢÐµÐ´ÑĥÑģ": 8872,
      "ĠÐºÑĢÐ°ÑīÐµ": 8873,
      "ĠÐ¿Ð»Ð°ÑģÑĤÐ¸": 8874,
      "ĠTod": 8875,
      "ÐĿÐŀ": 8876,
      "ĠÐ·Ð°ÑĤÐµÐ¼": 8877,
      "ĠÐ±Ð°ÑĢ": 8878,
      "ĠÐºÐ¾Ð¼Ð¿Ð°Ð½Ð¸Ñı": 8879,
      "ences": 8880,
      "ĠÐ¼Ð¸ÑĢÐ°": 8881,
      "Ð¾Ð´Ð¸ÑĤÑĮÑģÑı": 8882,
      "ĠMÃ©xico": 8883,
      "à±ĩà°¯à°¬à°¡": 8884,
      "Ġhalf": 8885,
      "Ġcorrespon": 8886,
      "Ġà°ªà°¥": 8887,
      "Ġju": 8888,
      "ĠÐºÐ°Ð½Ð´Ð¸": 8889,
      "ĠÐ¾ÑģÐ½Ð¾Ð²Ð°": 8890,
      "uf": 8891,
      "Ġflo": 8892,
      "ĠÐ°Ð´Ð¶Ðµ": 8893,
      "ford": 8894,
      "edor": 8895,
      "Ġnormal": 8896,
      "ĠAug": 8897,
      "à¤®à¤ķ": 8898,
      "ĠÐ¾ÑĨÐµÐ½": 8899,
      "Ġgol": 8900,
      "ĠKe": 8901,
      "ĠTV": 8902,
      "ĠÑħÐ°ÑĢ": 8903,
      "à¤¾à¤ĩà¤µ": 8904,
      "190": 8905,
      "à±ĭà°¬": 8906,
      "Ġcapacidad": 8907,
      "ÑĢÐ¾Ð·ÑĥÐ¼Ñĸ": 8908,
      "ĠÑĤÐ¾Ð¿": 8909,
      "ĠÐ¼Ð½Ð¾Ð¶": 8910,
      "QuÃ©": 8911,
      "ÐµÐºÐ¾": 8912,
      "amientos": 8913,
      "ĠUnidos": 8914,
      "ĠÑĢÐµÑĨÐµÐ¿": 8915,
      "à°Ĥà°ķà°°": 8916,
      "Ġadministr": 8917,
      "ÑĢÐ¾Ð²Ð¾Ð´": 8918,
      "ĠÐ¿ÐµÑĢÐ²ÑĭÐ¹": 8919,
      "Ð´Ð°ÐµÑĤÑģÑı": 8920,
      "Ð½Ð¸ÑĨÐµ": 8921,
      "enas": 8922,
      "à¤¿à¤¯à¤²": 8923,
      "imon": 8924,
      "à±Ģà°Łà°°": 8925,
      "Ġactually": 8926,
      "à°¿à°ķà°¨": 8927,
      "Ã©is": 8928,
      "ĠÐ¼ÐµÐ»": 8929,
      "ĠÑĥÐ¿ÑĢÐ°Ð²Ð»ÐµÐ½Ð¸Ñı": 8930,
      "There": 8931,
      "Ġfriends": 8932,
      "Ġstarted": 8933,
      "Ġacer": 8934,
      "ĠÐ¥Ð°ÑĢ": 8935,
      "à¤¿à¤¥": 8936,
      "ĠÐ¼ÐµÑĢÐ¾Ð¿ÑĢÐ¸": 8937,
      "à¥įà¤µà¤ļ": 8938,
      "ĠÐ¼Ð½Ð¾Ð³Ð¸Ðµ": 8939,
      "ĠÐ£ÐºÑĢÐ°Ð¸Ð½Ñĭ": 8940,
      "à°¾à°¯à°£": 8941,
      "ÑģÑĭÐ»": 8942,
      "Ð´Ð¾Ð½": 8943,
      "Ġade": 8944,
      "à±ģà°ªà°¤": 8945,
      "ĠÐ¿ÑĢÐ¸Ð³": 8946,
      "Ġhours": 8947,
      "atura": 8948,
      "Ġmeans": 8949,
      "ĠÐ¾Ð±Ð½Ð°": 8950,
      "ĠÐ¾ÑģÐºÑĸÐ»ÑĮÐºÐ¸": 8951,
      "-Ð»Ð¸": 8952,
      "ĠDirect": 8953,
      "ĠÐ·Ð°ÐºÐ»Ñİ": 8954,
      "ÑĪÐµÐ¼": 8955,
      "ÑĩÐ¾Ð³Ð¾": 8956,
      "à¤Ĺà¤¢": 8957,
      "zos": 8958,
      "Ġvot": 8959,
      "ĠÐ·Ð°Ð¼Ñĸ": 8960,
      "ĠÐ¹Ð´Ðµ": 8961,
      "à±įà°ªà°¨": 8962,
      "ÑģÑĤÐ²ÑĥÑİÑĤ": 8963,
      "Ġcard": 8964,
      "ĠÐ¿ÑĢÐ°ÐºÑĤÐ¸ÑĩÐµÑģÐºÐ¸": 8965,
      "à°ĩà°ķ": 8966,
      "ĠÐ¿ÑĢÑıÐ¼Ð¾": 8967,
      "ĠÐ±Ð¾Ð¹": 8968,
      "-in": 8969,
      "play": 8970,
      "Ġsor": 8971,
      "à¥Īà¤¶": 8972,
      "ches": 8973,
      "ĠÑĥÐ½Ð¸": 8974,
      "ironment": 8975,
      "ĠÑĥÐ»Ð¸": 8976,
[...]
